<pad>	0
<unk>	0
<s>	0
</s>	0
▁k	-0
▁a	-1
▁n	-2
▁l	-3
▁t	-4
▁ko	-5
▁na	-6
on	-7
▁ŋ	-8
in	-9
▁i	-10
▁lo	-11
ye	-12
ya	-13
gw	-14
di	-15
▁ŋu	-16
▁m	-17
▁ka	-18
ul	-19
▁gw	-20
▁s	-21
it	-22
▁'	-23
gon	-24
▁ti	-25
eŋ	-26
▁ŋut	-27
at	-28
▁A	-29
▁ta	-30
▁le	-31
▁kul	-32
ri	-33
de	-34
un	-35
▁y	-36
an	-37
▁p	-38
peŋ	-39
▁adi	-40
▁kö	-41
▁lepeŋ	-42
▁nan	-43
▁se	-44
ma	-45
▁ŋutu	-46
kin	-47
du	-48
et	-49
yö	-50
ju	-51
▁to	-52
il	-53
▁kulya	-54
▁nye	-55
es	-56
▁K	-57
iŋ	-58
▁logon	-59
bu	-60
▁mo	-61
▁nagon	-62
▁w	-63
▁Y	-64
dya	-65
▁ŋun	-66
yen	-67
uk	-68
▁gwon	-69
we	-70
ge	-71
ök	-72
ar	-73
▁ŋo	-74
ro	-75
yit	-76
je	-77
ön	-78
▁j	-79
gwon	-80
▁ki	-81
▁yi	-82
do	-83
re	-84
▁M	-85
▁N	-86
▁liŋ	-87
ak	-88
▁gwe	-89
▁gwo	-90
oŋ	-91
▁mu	-92
ti	-93
▁ŋuto	-94
dyö	-95
▁lu	-96
ru	-97
ine	-98
esi	-99
yo	-100
▁b	-101
ik	-102
wö	-103
ilo	-104
▁kas	-105
▁kan	-106
▁kogwon	-107
▁aje	-108
dye	-109
▁yu	-110
rik	-111
▁kon	-112
▁do	-113
▁an	-114
jin	-115
▁pi	-116
le	-117
ba	-118
esu	-119
▁Yesu	-120
▁L	-121
so	-122
▁kwe	-123
▁ama	-124
yu	-125
▁anyen	-126
den	-127
▁gwoso	-128
▁kanyit	-129
en	-130
▁kak	-131
ör	-132
da	-133
▁T	-134
▁nu	-135
▁tu	-136
▁kun	-137
ona	-138
▁Ko	-139
▁mug	-140
▁mugun	-141
ji	-142
▁iŋ	-143
▁me	-144
ja	-145
bö	-146
to	-147
gel	-148
▁g	-149
si	-150
ki	-151
ddi	-152
akin	-153
ur	-154
▁köti	-155
▁gel	-156
▁lepeŋat	-157
▁kulo	-158
▁geleŋ	-159
▁ködyö	-160
▁kaŋ	-161
atat	-162
▁iŋge	-163
▁S	-164
al	-165
▁ri	-166
▁P	-167
yena	-168
▁Nyena	-169
or	-170
▁ŋin	-171
▁ye	-172
ni	-173
▁tin	-174
▁kune	-175
▁ku	-176
▁ja	-177
wa	-178
ŋit	-179
▁kase	-180
ke	-181
▁kine	-182
ot	-183
yin	-184
gg	-185
▁po	-186
wan	-187
▁lele	-188
▁kilo	-189
▁luŋ	-190
▁Matat	-191
ron	-192
ta	-193
▁nanyit	-194
▁Nan	-195
▁kasu	-196
se	-197
▁Ama	-198
but	-199
▁bu	-200
rit	-201
▁den	-202
▁ŋilo	-203
duma	-204
ara	-205
▁ŋina	-206
▁pa	-207
▁pirit	-208
öt	-209
▁jo	-210
din	-211
▁di	-212
yan	-213
ökin	-214
▁kata	-215
ko	-216
▁r	-217
jo	-218
▁kaŋo	-219
▁pu	-220
▁kulyani	-221
▁ju	-222
▁jam	-223
ris	-224
▁kode	-225
yar	-226
▁Kogwon	-227
ala	-228
▁duma	-229
▁Kris	-230
▁Le	-231
su	-232
▁de	-233
▁tö	-234
▁Kristo	-235
bi	-236
bayin	-237
▁ru	-238
ddu	-239
ulök	-240
gu	-241
▁ni	-242
▁I	-243
▁töil	-244
▁diŋit	-245
▁yiŋ	-246
ero	-247
▁kondya	-248
ga	-249
rut	-250
ulö	-251
▁kit	-252
▁ŋuro	-253
▁yeye	-254
▁tindu	-255
jik	-256
bo	-257
ŋö	-258
börik	-259
▁parik	-260
sa	-261
dek	-262
akindya	-263
ra	-264
rek	-265
▁Lepeŋ	-266
aŋ	-267
undye	-268
ulu	-269
um	-270
▁si	-271
▁jore	-272
▁köl	-273
wöŋ	-274
kindya	-275
örö	-276
▁te	-277
▁wu	-278
▁sar	-279
▁sona	-280
▁tine	-281
▁Ta	-282
yet	-283
▁D	-284
▁kom	-285
▁met	-286
ötyo	-287
yöŋ	-288
▁kulye	-289
me	-290
yi	-291
kindye	-292
▁wur	-293
ani	-294
▁nyu	-295
▁B	-296
öŋö	-297
▁tok	-298
▁jambu	-299
gi	-300
ata	-301
▁Yi	-302
▁lon	-303
▁komoŋ	-304
bak	-305
▁twan	-306
öki	-307
▁Lo	-308
▁ma	-309
▁iti	-310
▁toron	-311
addi	-312
▁köju	-313
be	-314
pi	-315
▁re	-316
▁lonyit	-317
aki	-318
▁kita	-319
ulökötyo	-320
pu	-321
diri	-322
rin	-323
önit	-324
ene	-325
▁ro	-326
kwe	-327
ondi	-328
inyo	-329
ip	-330
▁lɛ	-331
▁jur	-332
▁muk	-333
▁böŋö	-334
ane	-335
▁yub	-336
undya	-337
▁Yu	-338
mor	-339
ikaŋ	-340
ia	-341
gwo	-342
undyö	-343
▁Yuda	-344
▁waddi	-345
jum	-346
go	-347
pet	-348
asi	-349
▁lwö	-350
▁tojo	-351
▁kirut	-352
▁murek	-353
▁Mulökötyo	-354
▁kadi	-355
▁pije	-356
öni	-357
▁Sar	-358
ana	-359
▁nene	-360
rok	-361
▁ke	-362
▁ŋa	-363
▁Ti	-364
▁li	-365
▁töilyet	-366
▁gu	-367
▁nyö	-368
▁yubbö	-369
tet	-370
jujum	-371
▁nyar	-372
▁nyo	-373
san	-374
▁kajujum	-375
▁tuk	-376
▁ŋona	-377
tu	-378
▁karin	-379
▁riŋit	-380
aba	-381
▁lor	-382
wak	-383
duŋ	-384
akindye	-385
▁Saresi	-386
po	-387
önö	-388
onye	-389
▁meddi	-390
atu	-391
▁swö	-392
atyan	-393
▁Yudaya	-394
▁deden	-395
▁kajujumuk	-396
▁Pa	-397
▁tet	-398
ddya	-399
la	-400
▁lö	-401
loŋ	-402
▁Do	-403
ulo	-404
▁mö	-405
▁köyö	-406
▁ny	-407
▁Ka	-408
dekan	-409
jö	-410
bur	-411
▁lyöŋ	-412
asirik	-413
▁mukök	-414
ut	-415
ose	-416
▁kiden	-417
▁tindi	-418
alaik	-419
▁bulö	-420
▁lwöl	-421
▁malaik	-422
▁d	-423
▁swöt	-424
▁momor	-425
wakwa	-426
▁todin	-427
▁E	-428
▁lio	-429
▁tatu	-430
▁G	-431
ggö	-432
▁yeŋ	-433
▁likaŋ	-434
ele	-435
ggi	-436
wat	-437
▁kulyaesi	-438
▁kwöŋ	-439
▁nyesu	-440
▁yupet	-441
isa	-442
oŋin	-443
▁bub	-444
▁Paulo	-445
▁töili	-446
oŋinana	-447
▁lup	-448
▁Baba	-449
▁Nyenagon	-450
▁teme	-451
▁toku	-452
▁pondi	-453
▁go	-454
▁nyuŋ	-455
▁rigwo	-456
▁temejik	-457
ari	-458
▁Ye	-459
▁kato	-460
▁kwakwa	-461
na	-462
nya	-463
▁mi	-464
bata	-465
▁takindya	-466
▁Kö	-467
dan	-468
▁Yudayaki	-469
ajin	-470
▁wurö	-471
▁teten	-472
▁nio	-473
▁tom	-474
▁ŋar	-475
▁ŋoŋ	-476
▁sulu	-477
▁lwölwöŋ	-478
iki	-479
▁boŋ	-480
▁Mose	-481
▁yiŋge	-482
gga	-483
ili	-484
wök	-485
▁nyarju	-486
anit	-487
▁bubulö	-488
▁soŋinana	-489
▁Loke	-490
ate	-491
▁ada	-492
▁nyan	-493
▁ga	-494
▁sa	-495
▁joŋ	-496
bura	-497
▁nyena	-498
▁nyanyar	-499
yaŋ	-500
▁Sa	-501
▁ŋwa	-502
▁jama	-503
▁ŋwajik	-504
pa	-505
yak	-506
erok	-507
▁twö	-508
▁wor	-509
ebi	-510
▁kokwe	-511
▁köji	-512
örun	-513
lot	-514
▁Pet	-515
▁luk	-516
▁takindye	-517
▁tum	-518
▁nase	-519
▁twat	-520
▁gworo	-521
▁jörun	-522
▁koane	-523
ökindye	-524
▁Petero	-525
▁meddya	-526
dwe	-527
jönö	-528
▁kiko	-529
▁perok	-530
▁mugunya	-531
mo	-532
ilu	-533
sala	-534
▁mil	-535
▁nebi	-536
▁lyöŋön	-537
▁yeyeju	-538
▁Lepeŋat	-539
oŋe	-540
lema	-541
▁nyona	-542
▁gwondi	-543
▁luŋasirik	-544
rusa	-545
▁gwak	-546
▁Yerusa	-547
▁Yerusalema	-548
▁kok	-549
▁toke	-550
▁tumatyan	-551
tum	-552
▁ŋi	-553
▁kam	-554
▁kuk	-555
▁yuŋ	-556
▁toto	-557
▁wuju	-558
▁kweja	-559
▁kölip	-560
▁milye	-561
gge	-562
▁teŋ	-563
▁tit	-564
duk	-565
liŋ	-566
▁kur	-567
▁mor	-568
▁yit	-569
▁nasu	-570
bat	-571
nin	-572
pur	-573
▁in	-574
▁ya	-575
▁jurön	-576
▁könin	-577
▁saresi	-578
▁R	-579
bul	-580
uki	-581
▁da	-582
▁rye	-583
▁inot	-584
▁ŋupi	-585
▁An	-586
örju	-587
▁kinyo	-588
▁taliŋ	-589
ökindyö	-590
▁twatwa	-591
lo	-592
ggu	-593
▁Yo	-594
erot	-595
tumit	-596
▁Kilo	-597
▁luŋu	-598
▁ŋerot	-599
▁kötumit	-600
dur	-601
iri	-602
▁kana	-603
lu	-604
puk	-605
▁mer	-606
▁nak	-607
▁ruk	-608
▁wot	-609
▁tiki	-610
dir	-611
▁bul	-612
▁wul	-613
▁kulu	-614
▁puök	-615
dok	-616
ete	-617
bara	-618
umbö	-619
▁musala	-620
▁kwakwaddu	-621
yöki	-622
▁agu	-623
▁tör	-624
ulökö	-625
▁renya	-626
dutet	-627
▁ilot	-628
▁lukata	-629
▁kulyaet	-630
met	-631
nye	-632
▁Io	-633
mbata	-634
yökie	-635
▁Loŋe	-636
▁konyen	-637
li	-638
dum	-639
▁ara	-640
▁ryö	-641
▁malaikatat	-642
lya	-643
man	-644
mot	-645
busan	-646
▁mere	-647
▁Yoane	-648
▁gwoloŋ	-649
▁kanisa	-650
▁mulökö	-651
▁toronjin	-652
buk	-653
▁Si	-654
önök	-655
beron	-656
▁lili	-657
▁ŋinu	-658
▁lorok	-659
▁luŋgu	-660
▁kujönö	-661
▁nakwan	-662
▁luyökie	-663
baŋ	-664
▁daŋ	-665
▁popo	-666
▁monye	-667
tuk	-668
öri	-669
▁mede	-670
▁nyin	-671
kindyö	-672
▁kondi	-673
▁ambata	-674
ka	-675
ryo	-676
Diri	-677
▁Yis	-678
▁kona	-679
▁köni	-680
▁rima	-681
▁konut	-682
▁putet	-683
ie	-684
ser	-685
dini	-686
▁Par	-687
▁gurut	-688
▁arabat	-689
▁konesi	-690
▁könisi	-691
aka	-692
idi	-693
koi	-694
▁sun	-695
▁toŋ	-696
▁Monye	-697
te	-698
sik	-699
aser	-700
▁par	-701
▁ŋilu	-702
▁ŋuru	-703
▁merya	-704
gö	-705
ato	-706
nyö	-707
aran	-708
▁ŋine	-709
▁Abara	-710
▁minyo	-711
▁ŋurup	-712
▁nyönyö	-713
mona	-714
▁bia	-715
▁rerek	-716
▁saret	-717
▁Abaraya	-718
pe	-719
dit	-720
▁ken	-721
▁Köti	-722
▁kayu	-723
▁buryo	-724
▁pupur	-725
▁tokor	-726
▁ködini	-727
▁Abarayama	-728
uŋ	-729
▁la	-730
▁nyöm	-731
▁pioŋ	-732
▁iŋwan	-733
▁narok	-734
▁twöju	-735
don	-736
ŋon	-737
dupi	-738
kine	-739
uluŋ	-740
▁riŋ	-741
▁Kine	-742
▁kima	-743
▁nikaŋ	-744
▁dendya	-745
▁parara	-746
▁kölumbö	-747
▁so	-748
▁Kul	-749
▁Pil	-750
▁pip	-751
▁puk	-752
▁yen	-753
bulit	-754
▁Paru	-755
▁lwök	-756
▁suny	-757
▁kunök	-758
▁kutuk	-759
▁sasan	-760
ŋe	-761
bön	-762
▁we	-763
▁togo	-764
▁tutu	-765
▁yiŋga	-766
▁nebijin	-767
▁malaikajin	-768
▁Tum	-769
▁lok	-770
▁loki	-771
▁toŋi	-772
ila	-773
▁Tumatyan	-774
mba	-775
öddu	-776
▁mum	-777
▁rop	-778
▁wate	-779
▁wörö	-780
▁gweya	-781
▁Yisara	-782
▁suluja	-783
▁yeyeesi	-784
dud	-785
lip	-786
alet	-787
iliŋ	-788
lyöŋ	-789
▁Nye	-790
▁löpu	-791
▁kayaŋ	-792
▁kimaŋ	-793
▁kunie	-794
▁luŋaser	-795
▁kwekindya	-796
ne	-797
gwat	-798
jine	-799
▁kin	-800
▁tuŋ	-801
▁jojo	-802
▁pija	-803
▁boŋgwat	-804
▁katodin	-805
dep	-806
▁yö	-807
▁lom	-808
▁lut	-809
baŋga	-810
sijin	-811
▁losu	-812
▁momo	-813
▁kokon	-814
▁woran	-815
▁gwogwo	-816
▁koanejin	-817
▁Parusijin	-818
▁Yisaraele	-819
dö	-820
rja	-821
yesi	-822
▁pit	-823
▁woŋ	-824
dweki	-825
▁Kadi	-826
▁Mete	-827
▁boŋgo	-828
▁kayup	-829
▁kurun	-830
▁lodir	-831
▁Da	-832
▁bat	-833
▁juju	-834
▁lupö	-835
▁Simona	-836
▁rubaŋga	-837
▁todindyö	-838
▁Na	-839
rikin	-840
▁alip	-841
▁guba	-842
▁lose	-843
▁jambi	-844
▁kamör	-845
▁tatua	-846
▁yitwe	-847
▁ŋoŋga	-848
▁suluje	-849
▁tatuja	-850
▁ludweki	-851
Ba	-852
yuk	-853
aria	-854
Bayin	-855
▁kuku	-856
▁tomu	-857
▁ŋote	-858
dekesi	-859
▁kusik	-860
▁tikin	-861
▁tokujö	-862
▁kölipönök	-863
mön	-864
sök	-865
▁To	-866
▁kiŋ	-867
▁yuk	-868
▁yup	-869
▁loke	-870
duŋöki	-871
▁lalet	-872
▁yuŋwe	-873
▁kweyet	-874
wön	-875
▁wi	-876
daet	-877
riat	-878
unit	-879
▁kunu	-880
▁delya	-881
▁joŋga	-882
▁kulök	-883
bukuluŋ	-884
▁gwiliŋ	-885
ako	-886
deb	-887
▁Ro	-888
pudi	-889
öddi	-890
▁Gal	-891
▁lala	-892
▁rere	-893
▁binyo	-894
▁tomor	-895
▁tuggö	-896
len	-897
ria	-898
▁Ma	-899
addu	-900
asia	-901
uluk	-902
▁dya	-903
▁mete	-904
▁luŋgi	-905
▁kamörök	-906
▁merenye	-907
dik	-908
waje	-909
▁Nyo	-910
▁son	-911
▁Masia	-912
▁alipan	-913
▁tokela	-914
▁kayupök	-915
▁katodinök	-916
▁kölipönit	-917
ipo	-918
let	-919
dure	-920
▁Luŋ	-921
▁gwi	-922
▁jupu	-923
▁nake	-924
▁ŋien	-925
▁ŋini	-926
▁joŋgi	-927
▁pusök	-928
▁Sabata	-929
▁momoret	-930
kit	-931
▁pö	-932
kosi	-933
▁tor	-934
akobo	-935
ilaya	-936
▁meta	-937
▁pele	-938
▁luduk	-939
▁pokin	-940
▁sondi	-941
▁tukwö	-942
▁Yakobo	-943
▁lupudi	-944
▁Galilaya	-945
doro	-946
▁jon	-947
▁kör	-948
▁Kulya	-949
▁daŋin	-950
▁loron	-951
▁memet	-952
▁roman	-953
▁ryeji	-954
▁tutuŋ	-955
▁momorja	-956
▁tukwaje	-957
▁ŋarakindya	-958
sur	-959
ula	-960
anat	-961
aten	-962
widi	-963
örji	-964
▁rik	-965
▁görö	-966
▁kido	-967
▁möju	-968
▁yuyu	-969
▁Dawidi	-970
▁mokosi	-971
▁lutaten	-972
▁sunyundyö	-973
▁?	-974
böŋ	-975
les	-976
ikin	-977
rien	-978
▁kuI	-979
▁tul	-980
deggi	-981
▁Kato	-982
▁mörö	-983
▁koŋon	-984
▁löpuk	-985
▁nyömü	-986
▁sörju	-987
▁yeŋon	-988
▁löpuggö	-989
▁nyönyök	-990
ret	-991
▁Iŋ	-992
▁Me	-993
andu	-994
wero	-995
▁buk	-996
▁tup	-997
debba	-998
▁midi	-999
▁wuji	-1000
▁Maria	-1001
▁lupöni	-1002
▁jamakin	-1003
▁kiŋajin	-1004
▁rereket	-1005
▁Luŋasirik	-1006
sen	-1007
▁Ie	-1008
ddye	-1009
▁Ero	-1010
▁Pon	-1011
▁ake	-1012
▁mön	-1013
▁wiw	-1014
akine	-1015
yakwa	-1016
▁löti	-1017
▁tema	-1018
▁tito	-1019
arikin	-1020
▁nakwe	-1021
dumundye	-1022
▁diŋitan	-1023
▁kulyari	-1024
▁kölökin	-1025
▁mukanat	-1026
▁gwiliŋit	-1027
▁tukwörien	-1028
▁kitakindya	-1029
lö	-1030
üt	-1031
bot	-1032
rwe	-1033
yok	-1034
▁ajo	-1035
▁bot	-1036
▁mia	-1037
tusen	-1038
▁iŋkoi	-1039
▁lobot	-1040
▁mudwe	-1041
▁wuröki	-1042
▁kutusen	-1043
▁ŋurupit	-1044
▁wo	-1045
tesi	-1046
ulin	-1047
▁pon	-1048
dudwö	-1049
▁kepo	-1050
▁Erode	-1051
▁maman	-1052
▁rorwe	-1053
▁ŋiörö	-1054
▁jondya	-1055
▁kalyöŋ	-1056
▁toŋiyu	-1057
▁yeyeji	-1058
▁tuparan	-1059
eta	-1060
jar	-1061
mbi	-1062
▁gi	-1063
▁kar	-1064
▁kwö	-1065
▁mun	-1066
duŋgö	-1067
▁Lele	-1068
▁wara	-1069
▁Iŋkoi	-1070
▁lokoŋ	-1071
▁pukun	-1072
▁titin	-1073
▁Pilipo	-1074
▁nyakwa	-1075
▁tawero	-1076
▁ŋurupö	-1077
▁katoron	-1078
▁tokorju	-1079
▁yuŋundye	-1080
ulöm	-1081
▁tur	-1082
lesen	-1083
▁bati	-1084
▁loŋe	-1085
▁pajo	-1086
▁tiri	-1087
▁tore	-1088
▁wora	-1089
▁kuIya	-1090
▁takin	-1091
▁woŋon	-1092
▁Kiloloŋ	-1093
▁ködudwö	-1094
▁kanisajin	-1095
bbi	-1096
kia	-1097
min	-1098
oro	-1099
▁yo	-1100
▁mok	-1101
▁nya	-1102
▁yin	-1103
atani	-1104
▁lome	-1105
▁möri	-1106
▁gulöm	-1107
▁jukin	-1108
▁nyesi	-1109
▁wiwin	-1110
▁kwörin	-1111
▁swötön	-1112
▁yitöni	-1113
▁Katodin	-1114
▁rerenya	-1115
▁tomurek	-1116
▁merenyejin	-1117
mi	-1118
buŋ	-1119
akap	-1120
baka	-1121
▁kat	-1122
buŋöt	-1123
dogga	-1124
yöŋgu	-1125
▁Kode	-1126
▁kaŋö	-1127
▁koke	-1128
▁koko	-1129
▁lyan	-1130
▁tolu	-1131
dakine	-1132
▁kaden	-1133
▁sarju	-1134
▁yidin	-1135
▁Satani	-1136
▁gworoŋ	-1137
▁tinate	-1138
▁waraga	-1139
▁jujukin	-1140
▁kadijik	-1141
▁jakindya	-1142
▁milyekin	-1143
▁nyanyara	-1144
▁rubaŋgajin	-1145
ake	-1146
jit	-1147
jön	-1148
leŋ	-1149
▁jö	-1150
doke	-1151
▁sul	-1152
▁won	-1153
▁bula	-1154
▁kati	-1155
▁moka	-1156
▁pipi	-1157
dokesi	-1158
kwelen	-1159
yundya	-1160
▁dakap	-1161
▁kasar	-1162
▁kikit	-1163
▁lyöŋi	-1164
▁teŋgu	-1165
▁yiyin	-1166
▁yubbe	-1167
▁kitajin	-1168
▁kweyesi	-1169
▁köbuŋöt	-1170
▁konakindya	-1171
▁Katodinönit	-1172
eo	-1173
öpu	-1174
▁ra	-1175
▁Bar	-1176
▁Eji	-1177
▁mar	-1178
▁rur	-1179
bojin	-1180
burön	-1181
▁jaja	-1182
▁mora	-1183
▁tete	-1184
▁körju	-1185
▁yendu	-1186
▁Ejipet	-1187
▁Pilato	-1188
▁lwöggu	-1189
▁piritön	-1190
laŋ	-1191
rje	-1192
wut	-1193
ŋgi	-1194
▁Ki	-1195
▁ŋe	-1196
boro	-1197
dani	-1198
jinö	-1199
rika	-1200
▁Iti	-1201
▁pur	-1202
▁saa	-1203
▁wök	-1204
▁gwör	-1205
▁karu	-1206
▁loko	-1207
▁najo	-1208
▁toko	-1209
▁yöŋö	-1210
▁lomun	-1211
▁merok	-1212
▁rereka	-1213
▁Ejipeto	-1214
▁midijik	-1215
▁yitwene	-1216
▁lomerika	-1217
▁tetendya	-1218
▁torondya	-1219
▁yiyiniki	-1220
▁ambatajin	-1221
▁ludukötyo	-1222
▁mulökötyo	-1223
bbu	-1224
ker	-1225
sut	-1226
uma	-1227
depa	-1228
idio	-1229
yene	-1230
▁Kwe	-1231
▁Köl	-1232
balaŋ	-1233
osepa	-1234
unyar	-1235
öidio	-1236
örösi	-1237
▁dara	-1238
▁keri	-1239
▁kije	-1240
▁leta	-1241
▁logo	-1242
dupiet	-1243
▁Iogon	-1244
▁bulet	-1245
▁kaser	-1246
▁lwökö	-1247
▁ropet	-1248
▁ryeju	-1249
▁Yosepa	-1250
▁kokona	-1251
▁mumulu	-1252
▁nyomot	-1253
▁sörösi	-1254
▁melesen	-1255
▁sasanya	-1256
▁kaŋöönit	-1257
▁nyömüjin	-1258
▁todinesi	-1259
▁ŋarundya	-1260
▁nyakwariat	-1261
mu	-1262
ikö	-1263
lan	-1264
riŋ	-1265
une	-1266
▁Po	-1267
daki	-1268
done	-1269
wökö	-1270
▁Mor	-1271
▁lyö	-1272
öröni	-1273
▁Sama	-1274
▁poki	-1275
▁yöbu	-1276
burönö	-1277
dindya	-1278
▁bandu	-1279
▁jondi	-1280
▁lilim	-1281
▁naron	-1282
▁pipin	-1283
▁somot	-1284
▁wulun	-1285
▁yemba	-1286
burönök	-1287
▁dyadya	-1288
▁konaki	-1289
▁kwekin	-1290
▁milyeju	-1291
▁pupurja	-1292
▁katoronyak	-1293
gwi	-1294
lak	-1295
lon	-1296
pen	-1297
▁Gw	-1298
▁su	-1299
akan	-1300
bure	-1301
irik	-1302
▁wow	-1303
▁öpu	-1304
bolot	-1305
moteo	-1306
▁asut	-1307
▁dena	-1308
▁dene	-1309
▁lulu	-1310
▁toro	-1311
▁tugw	-1312
▁yeŋe	-1313
buruki	-1314
yundye	-1315
▁mörju	-1316
▁rugge	-1317
▁twana	-1318
▁wökön	-1319
▁köjinö	-1320
▁lalaju	-1321
▁tetena	-1322
▁ŋunyen	-1323
▁Timoteo	-1324
▁mumuluk	-1325
▁pupurje	-1326
▁tomoret	-1327
▁wiwinya	-1328
▁kukujönö	-1329
▁tulyöŋgu	-1330
▁wulundyö	-1331
▁u	-1332
diŋ	-1333
lin	-1334
uka	-1335
ukö	-1336
▁Se	-1337
▁So	-1338
diko	-1339
guya	-1340
▁man	-1341
▁mir	-1342
beleŋ	-1343
▁abur	-1344
▁wöki	-1345
▁koloŋ	-1346
▁temba	-1347
▁yuyuk	-1348
▁loguya	-1349
▁worani	-1350
▁kepoddi	-1351
▁kikolin	-1352
▁lyölyöŋ	-1353
▁yeyeŋon	-1354
▁kalyöŋök	-1355
▁lwölwökö	-1356
▁kötumitön	-1357
ku	-1358
ok	-1359
del	-1360
uni	-1361
▁Ku	-1362
▁ba	-1363
ania	-1364
dara	-1365
deke	-1366
naba	-1367
▁Kal	-1368
▁tut	-1369
delya	-1370
doket	-1371
yanit	-1372
▁Yisa	-1373
▁doto	-1374
▁kuru	-1375
▁lyaŋ	-1376
▁togi	-1377
▁usur	-1378
▁Iepeŋ	-1379
▁sulüt	-1380
▁ŋoŋoŋ	-1381
wökönit	-1382
▁batisa	-1383
▁kikita	-1384
▁lilija	-1385
▁nyarji	-1386
▁Samaria	-1387
▁gwoloŋe	-1388
▁kwakwas	-1389
▁Kalwökönit	-1390
▁sarakindye	-1391
▁temakindya	-1392
er	-1393
▁;	-1394
ilö	-1395
sia	-1396
▁Tu	-1397
▁bö	-1398
▁lw	-1399
▁sö	-1400
dela	-1401
malu	-1402
ösur	-1403
▁kor	-1404
▁lul	-1405
▁sop	-1406
duŋet	-1407
manit	-1408
▁Amin	-1409
▁Make	-1410
▁lwak	-1411
▁munu	-1412
tumalu	-1413
umuluk	-1414
▁jajam	-1415
▁kusan	-1416
▁mogga	-1417
▁moggi	-1418
▁radan	-1419
▁yenet	-1420
▁kölöki	-1421
▁lwökit	-1422
▁putesi	-1423
▁rurwan	-1424
▁tokuru	-1425
▁toŋiju	-1426
▁wöröni	-1427
▁Barnaba	-1428
▁Kölumbö	-1429
▁kasarak	-1430
▁laundya	-1431
▁kamumuluk	-1432
▁löpukundyö	-1433
ano	-1434
eso	-1435
gor	-1436
oni	-1437
tio	-1438
wet	-1439
wör	-1440
yiŋ	-1441
öbi	-1442
öji	-1443
▁Ep	-1444
▁Pi	-1445
▁pe	-1446
buru	-1447
möni	-1448
▁jok	-1449
▁lui	-1450
▁mon	-1451
▁möm	-1452
atatu	-1453
donia	-1454
wutön	-1455
▁Kape	-1456
▁gilö	-1457
▁kilu	-1458
▁lwöŋ	-1459
▁molu	-1460
▁putu	-1461
▁toli	-1462
duddyö	-1463
▁buker	-1464
▁gweja	-1465
▁lwöŋö	-1466
▁morja	-1467
▁mödir	-1468
▁mömön	-1469
▁sonyo	-1470
▁twöji	-1471
▁wulwe	-1472
▁kwekwe	-1473
▁luköbi	-1474
▁marate	-1475
▁yeyeet	-1476
▁dumalak	-1477
▁jurakan	-1478
▁luŋösur	-1479
▁löpugge	-1480
▁tetendi	-1481
▁towutön	-1482
▁tutuŋgö	-1483
▁kinyojin	-1484
▁kotumalu	-1485
▁tetenaki	-1486
▁Makedonia	-1487
▁kwakwaddi	-1488
▁sarakindya	-1489
.)	-1490
ai	-1491
ito	-1492
mia	-1493
ityo	-1494
oron	-1495
saka	-1496
▁Adi	-1497
▁gwu	-1498
▁tol	-1499
yunit	-1500
▁Mere	-1501
▁kape	-1502
▁meme	-1503
▁ruru	-1504
▁tiju	-1505
▁tomi	-1506
▁toyi	-1507
▁wuki	-1508
▁Epeso	-1509
▁Kulye	-1510
▁gwine	-1511
▁gwulu	-1512
▁gwörö	-1513
▁kijit	-1514
▁kweki	-1515
▁kweya	-1516
▁köpuk	-1517
▁magor	-1518
▁pipit	-1519
▁yiyiŋ	-1520
▁kitari	-1521
▁pömöni	-1522
▁woŋoro	-1523
▁riköddu	-1524
▁gweyajin	-1525
▁todindye	-1526
▁tomusala	-1527
▁mumulugga	-1528
▁jamakindye	-1529
▁tukökindye	-1530
▁nakwekwelen	-1531
isi	-1532
ora	-1533
yal	-1534
ötu	-1535
▁La	-1536
▁be	-1537
riku	-1538
▁Bet	-1539
▁Gwe	-1540
▁duk	-1541
▁kip	-1542
▁laŋ	-1543
doggi	-1544
rutat	-1545
▁Roma	-1546
▁kaye	-1547
▁kopo	-1548
▁lomo	-1549
▁nago	-1550
▁taki	-1551
jareta	-1552
jönöni	-1553
▁Girik	-1554
▁pipil	-1555
▁sörji	-1556
▁temet	-1557
▁wurjö	-1558
▁ŋarju	-1559
▁Pasaka	-1560
▁Yisaya	-1561
▁denesi	-1562
▁jokaki	-1563
▁ludukö	-1564
▁ropaki	-1565
▁Kulyaet	-1566
▁rukökin	-1567
▁sasandu	-1568
dekarikin	-1569
▁Najareta	-1570
▁Soŋinana	-1571
▁kujönöni	-1572
▁lomunyak	-1573
▁lupudiet	-1574
▁kwörinikö	-1575
▁lyölyöŋön	-1576
▁kamumulukak	-1577
▁tokurukindyö	-1578
De	-1579
Io	-1580
bbö	-1581
daŋ	-1582
iko	-1583
pir	-1584
yon	-1585
ökö	-1586
▁Ya	-1587
▁ji	-1588
itun	-1589
▁dot	-1590
▁pöt	-1591
▁ŋiŋ	-1592
ikiki	-1593
pukun	-1594
▁Asia	-1595
▁Taki	-1596
▁bubu	-1597
▁jölö	-1598
▁kare	-1599
▁kömu	-1600
▁lwön	-1601
▁nagu	-1602
▁pödö	-1603
▁toyu	-1604
▁ŋari	-1605
▁Rombi	-1606
▁Saula	-1607
▁böbön	-1608
▁julin	-1609
▁korja	-1610
▁moran	-1611
▁ririŋ	-1612
▁riŋet	-1613
▁togwi	-1614
▁topur	-1615
▁welet	-1616
▁bubula	-1617
▁bulöni	-1618
▁kindya	-1619
▁konani	-1620
▁lomore	-1621
▁tatatu	-1622
▁ŋoŋesi	-1623
dumundya	-1624
▁komonye	-1625
▁lilimön	-1626
▁mamandi	-1627
▁moraddi	-1628
▁möriesi	-1629
▁renyani	-1630
▁riŋitön	-1631
▁titindu	-1632
▁ŋoŋoŋga	-1633
▁kwörinit	-1634
▁lombojin	-1635
▁momoresi	-1636
▁wukindya	-1637
▁tokukindyö	-1638
▁tukökindyö	-1639
oa	-1640
yök	-1641
▁Lu	-1642
▁wa	-1643
▁ŋö	-1644
biki	-1645
iŋit	-1646
lesi	-1647
▁Ada	-1648
▁dak	-1649
▁dul	-1650
▁loŋ	-1651
▁wuw	-1652
▁yan	-1653
geleŋ	-1654
lanit	-1655
nyesi	-1656
▁dili	-1657
▁gugu	-1658
▁kala	-1659
▁kame	-1660
▁kiya	-1661
▁kwen	-1662
▁möji	-1663
▁nyök	-1664
▁roro	-1665
▁ryok	-1666
▁toju	-1667
▁topu	-1668
▁weja	-1669
▁yapa	-1670
▁yuku	-1671
▁ŋiŋi	-1672
bikiki	-1673
boroja	-1674
tiokia	-1675
ukökin	-1676
▁Diŋit	-1677
▁Kweja	-1678
▁Meddi	-1679
▁dirje	-1680
▁gwien	-1681
▁kaine	-1682
▁kenia	-1683
▁likin	-1684
▁lwaka	-1685
▁möndu	-1686
▁riŋge	-1687
▁ruggö	-1688
▁sarji	-1689
▁tojum	-1690
durökin	-1691
duŋönit	-1692
▁Giriki	-1693
▁Yisaka	-1694
▁lyaŋan	-1695
▁miriku	-1696
▁tatuje	-1697
▁tikine	-1698
▁gworolo	-1699
▁pupukun	-1700
▁toberon	-1701
▁tukökin	-1702
▁wurökin	-1703
▁yinikin	-1704
▁Antiokia	-1705
▁kayemanit	-1706
▁kwekindye	-1707
▁gubakindye	-1708
▁kitakindye	-1709
▁konakindye	-1710
▁kölökindye	-1711
▁mirakindya	-1712
▁momorundye	-1713
alo	-1714
bit	-1715
ija	-1716
ike	-1717
iti	-1718
jöŋ	-1719
twö	-1720
ule	-1721
yat	-1722
yun	-1723
üsi	-1724
▁je	-1725
arin	-1726
bati	-1727
giri	-1728
mönö	-1729
rone	-1730
rugi	-1731
ulya	-1732
ökit	-1733
▁Mar	-1734
▁dik	-1735
▁gor	-1736
▁lur	-1737
▁löm	-1738
▁rwö	-1739
▁ryo	-1740
▁wuk	-1741
doken	-1742
sikan	-1743
unyan	-1744
▁Dama	-1745
▁Solo	-1746
▁Tito	-1747
▁budu	-1748
▁koŋe	-1749
▁lege	-1750
▁pupu	-1751
▁sisi	-1752
▁yema	-1753
▁ŋaju	-1754
dorone	-1755
▁gwöri	-1756
▁kakit	-1757
▁kayuk	-1758
▁kemia	-1759
▁kupir	-1760
▁kweni	-1761
▁lwönö	-1762
▁miret	-1763
▁muggö	-1764
▁wuryö	-1765
▁Yeyene	-1766
▁burugi	-1767
▁jamesi	-1768
▁kukuju	-1769
▁nagusu	-1770
▁nyenye	-1771
▁pitöki	-1772
▁puköki	-1773
▁tokuje	-1774
▁tomijö	-1775
▁twötwö	-1776
▁ŋiŋien	-1777
▁dedelya	-1778
▁gubaddi	-1779
▁mömöndu	-1780
▁titikin	-1781
▁togeleŋ	-1782
▁Solomona	-1783
▁nyömöddi	-1784
▁nyönyökö	-1785
▁gweyundya	-1786
▁katiyunit	-1787
▁rerenyesi	-1788
▁sasanyesi	-1789
▁torukökin	-1790
▁komoŋsikan	-1791
▁ŋarakindye	-1792
▁nyönyökökindye	-1793
Ie	-1794
iI	-1795
pö	-1796
aet	-1797
are	-1798
dök	-1799
gwö	-1800
kan	-1801
▁El	-1802
▁Ge	-1803
▁Iu	-1804
▁wö	-1805
alan	-1806
arju	-1807
atyo	-1808
doŋe	-1809
ilik	-1810
itan	-1811
itöt	-1812
mukö	-1813
pine	-1814
seke	-1815
wene	-1816
yura	-1817
örit	-1818
▁Iiŋ	-1819
▁Iye	-1820
▁gig	-1821
▁gum	-1822
▁kal	-1823
▁köb	-1824
▁mam	-1825
▁toj	-1826
▁yul	-1827
deket	-1828
ilili	-1829
kityo	-1830
lonit	-1831
ukwön	-1832
utörö	-1833
yuret	-1834
öjine	-1835
ökine	-1836
▁Sila	-1837
▁goma	-1838
▁goro	-1839
▁kiIo	-1840
▁kiŋa	-1841
▁kure	-1842
▁liwa	-1843
▁rome	-1844
akaria	-1845
dokeno	-1846
▁Elisa	-1847
▁Pirit	-1848
▁jaran	-1849
▁katwö	-1850
▁kelan	-1851
▁kijek	-1852
▁kitun	-1853
▁kokor	-1854
▁kujöŋ	-1855
▁madaŋ	-1856
▁rorop	-1857
▁sondu	-1858
▁yendi	-1859
▁ŋoŋgi	-1860
dokejin	-1861
▁Kunyar	-1862
▁gubara	-1863
▁gulömö	-1864
▁jamaki	-1865
▁kadoŋe	-1866
▁katatu	-1867
▁kendya	-1868
▁keriat	-1869
▁kitani	-1870
▁kukuji	-1871
▁merete	-1872
▁sömukö	-1873
▁toyiyi	-1874
▁tudara	-1875
▁yiniki	-1876
▁yukaet	-1877
▁karakin	-1878
▁lokoyok	-1879
▁moraddu	-1880
▁teteyon	-1881
▁tokorji	-1882
▁tokujön	-1883
▁twatwan	-1884
▁ŋariesi	-1885
▁Damaseke	-1886
▁batiddya	-1887
▁denundya	-1888
▁kukutörö	-1889
▁kusanjin	-1890
▁lokukwön	-1891
▁lupundye	-1892
▁luŋundya	-1893
▁pipindye	-1894
▁tomunyan	-1895
▁topurwan	-1896
▁wöröjine	-1897
▁yuŋundyö	-1898
depakindya	-1899
▁Sadokejin	-1900
▁luŋösurök	-1901
▁kwakwasesi	-1902
▁morakindya	-1903
▁putukindye	-1904
▁sopakindye	-1905
▁Yudayakityo	-1906
▁kajujumunit	-1907
▁katodinönit	-1908
dI	-1909
▁e	-1910
ama	-1911
gwe	-1912
iya	-1913
ryö	-1914
tor	-1915
uri	-1916
uti	-1917
▁Ru	-1918
▁Te	-1919
▁ge	-1920
alaŋ	-1921
bela	-1922
beta	-1923
biya	-1924
bori	-1925
doni	-1926
duru	-1927
duŋö	-1928
döju	-1929
gano	-1930
mara	-1931
pala	-1932
simo	-1933
sona	-1934
turu	-1935
unyi	-1936
yare	-1937
ŋwan	-1938
▁Ebe	-1939
▁Eli	-1940
▁dum	-1941
▁jin	-1942
▁kaw	-1943
▁kik	-1944
▁kök	-1945
▁nag	-1946
▁suk	-1947
▁tat	-1948
▁tun	-1949
▁waŋ	-1950
▁yat	-1951
▁ŋaŋ	-1952
daesi	-1953
doggu	-1954
gelok	-1955
jityo	-1956
raddu	-1957
uluja	-1958
ulöki	-1959
yarju	-1960
▁Duma	-1961
▁Toma	-1962
▁bara	-1963
▁keke	-1964
▁kolo	-1965
▁kudu	-1966
▁köli	-1967
▁lawe	-1968
▁liki	-1969
▁lipo	-1970
▁mukö	-1971
▁paju	-1972
▁toru	-1973
▁weki	-1974
▁woŋe	-1975
▁wöri	-1976
▁yiŋa	-1977
▁ŋaji	-1978
boroji	-1979
dumaji	-1980
▁Kaper	-1981
▁Saret	-1982
▁budök	-1983
▁dotöt	-1984
▁kegga	-1985
▁kenet	-1986
▁lombo	-1987
▁matat	-1988
▁munuö	-1989
▁pepen	-1990
▁rekin	-1991
▁tugge	-1992
▁tutuk	-1993
▁waddu	-1994
▁yandu	-1995
▁yulön	-1996
▁yuyup	-1997
beleŋgu	-1998
burönit	-1999
ganojin	-2000
▁Anania	-2001
▁Suluja	-2002
▁buŋwan	-2003
▁kanyar	-2004
▁kidoni	-2005
▁memeta	-2006
▁momoro	-2007
▁pipija	-2008
▁pipije	-2009
▁pötwör	-2010
▁sunyun	-2011
▁tetema	-2012
▁toduma	-2013
▁tomiri	-2014
▁totoku	-2015
▁yapala	-2016
▁ŋaraki	-2017
▁kalyöŋi	-2018
▁kapepen	-2019
▁katiyuk	-2020
▁kepoddu	-2021
▁konakin	-2022
▁kölöddi	-2023
▁legelok	-2024
▁momorji	-2025
▁tojulin	-2026
▁ŋoŋaddu	-2027
▁batisimo	-2028
▁kurundyö	-2029
▁lomunyan	-2030
▁luŋundye	-2031
▁mönundye	-2032
▁puputuru	-2033
▁totopine	-2034
▁tudaraju	-2035
▁wuyundye	-2036
▁Elisabeta	-2037
▁gwörundyö	-2038
▁kolojityo	-2039
▁todinikin	-2040
▁jamakindya	-2041
▁mumulukesi	-2042
▁pipilundya	-2043
▁pitökindyö	-2044
▁ropakindye	-2045
▁ryokakindya	-2046
),	-2047
Ieŋ	-2048
ese	-2049
gar	-2050
ita	-2051
lio	-2052
lön	-2053
rak	-2054
sar	-2055
yöm	-2056
öru	-2057
ŋgu	-2058
▁Ba	-2059
▁Ke	-2060
▁Mu	-2061
▁Pu	-2062
▁Yö	-2063
▁bo	-2064
anan	-2065
dene	-2066
doko	-2067
duki	-2068
dukö	-2069
ilan	-2070
unyu	-2071
urön	-2072
wesi	-2073
▁Tin	-2074
▁Tuk	-2075
▁Yiŋ	-2076
▁bar	-2077
▁gir	-2078
▁gon	-2079
▁goŋ	-2080
▁gwö	-2081
▁jwe	-2082
▁min	-2083
▁ŋol	-2084
debbi	-2085
dirön	-2086
duggö	-2087
eitun	-2088
ilötu	-2089
puröt	-2090
sanit	-2091
sityo	-2092
sörju	-2093
welen	-2094
ököti	-2095
▁IeIe	-2096
▁Kulo	-2097
▁Maga	-2098
▁Yona	-2099
▁joŋa	-2100
▁kinu	-2101
▁koro	-2102
▁kuyu	-2103
▁lojo	-2104
▁lupe	-2105
▁mama	-2106
▁mimi	-2107
▁muda	-2108
▁mwön	-2109
▁pori	-2110
▁sara	-2111
▁tori	-2112
▁wone	-2113
▁wusa	-2114
▁yitö	-2115
▁öpuö	-2116
anauma	-2117
girigi	-2118
isaria	-2119
itajin	-2120
▁Adama	-2121
▁Eliya	-2122
▁Karin	-2123
▁Koane	-2124
▁Munyi	-2125
▁baran	-2126
▁boŋgi	-2127
▁gwugw	-2128
▁kakur	-2129
▁kebbu	-2130
▁kipya	-2131
▁kugga	-2132
▁kukur	-2133
▁kurwe	-2134
▁mariŋ	-2135
▁mokot	-2136
▁morin	-2137
▁mörji	-2138
▁nyola	-2139
▁rumön	-2140
▁tolup	-2141
▁tomie	-2142
▁turön	-2143
▁yeyen	-2144
▁yiŋun	-2145
burukin	-2146
dumaddu	-2147
duŋökin	-2148
ikindyö	-2149
▁Babela	-2150
▁bulani	-2151
▁karyak	-2152
▁kiaser	-2153
▁luitöt	-2154
▁margar	-2155
▁metani	-2156
▁pitönö	-2157
▁riŋari	-2158
▁ruköki	-2159
▁saraki	-2160
▁tojore	-2161
▁wulöki	-2162
▁yeyene	-2163
dikindya	-2164
▁jajambu	-2165
▁kiyaddi	-2166
▁lyöŋesi	-2167
▁sarakin	-2168
▁tatatua	-2169
▁togirja	-2170
▁tokoyok	-2171
▁tokulya	-2172
▁yuyuggö	-2173
▁ŋolitan	-2174
▁Kaisaria	-2175
▁dulakine	-2176
▁gigilötu	-2177
▁gwöriesi	-2178
▁katwöyök	-2179
▁lwöŋöddi	-2180
▁lwöŋöddu	-2181
▁momoroju	-2182
▁piyundya	-2183
▁rigirigi	-2184
▁todiniki	-2185
▁tokwelen	-2186
▁tomirian	-2187
▁topuökit	-2188
duŋökindyö	-2189
▁kasaranit	-2190
▁nyönyöggi	-2191
▁tetenakin	-2192
▁kaserököti	-2193
▁wurökindye	-2194
▁wurökindyö	-2195
▁Kaperanauma	-2196
▁katoronyanit	-2197
▁toyiyikindyö	-2198
wi	-2199
bun	-2200
ena	-2201
ina	-2202
joŋ	-2203
kak	-2204
kor	-2205
odi	-2206
ota	-2207
sek	-2208
wöt	-2209
▁Ar	-2210
▁Ri	-2211
▁du	-2212
▁oŋ	-2213
▁tw	-2214
atia	-2215
bula	-2216
dala	-2217
diet	-2218
döri	-2219
enai	-2220
miru	-2221
rani	-2222
riri	-2223
sani	-2224
wute	-2225
yapa	-2226
ŋöni	-2227
▁And	-2228
▁Tuŋ	-2229
▁Yar	-2230
▁jik	-2231
▁jöl	-2232
▁köt	-2233
▁nam	-2234
▁pik	-2235
▁rya	-2236
▁tem	-2237
▁tow	-2238
▁ŋai	-2239
▁ŋan	-2240
▁ŋor	-2241
durjö	-2242
eleje	-2243
gwora	-2244
wönin	-2245
▁Turo	-2246
▁döru	-2247
▁gigi	-2248
▁gwul	-2249
▁kalu	-2250
▁katu	-2251
▁keju	-2252
▁kela	-2253
▁kena	-2254
▁kupö	-2255
▁kuun	-2256
▁kwak	-2257
▁körö	-2258
▁mara	-2259
▁mien	-2260
▁ndya	-2261
▁riŋa	-2262
▁rupu	-2263
▁tuka	-2264
▁witi	-2265
▁wowo	-2266
▁yawa	-2267
▁yiyi	-2268
▁yöki	-2269
dyakan	-2270
mindya	-2271
nyejin	-2272
odikia	-2273
wakwas	-2274
▁Gworo	-2275
▁Siona	-2276
▁Yöŋgi	-2277
▁kikwa	-2278
▁lulur	-2279
▁luŋwe	-2280
▁momok	-2281
▁munyi	-2282
▁möndi	-2283
▁nyare	-2284
▁pisek	-2285
▁rudwe	-2286
▁sunyu	-2287
▁sörit	-2288
▁telet	-2289
▁tembi	-2290
▁teŋon	-2291
▁tomon	-2292
▁waran	-2293
▁wuggö	-2294
▁wurje	-2295
▁yemet	-2296
▁ŋerja	-2297
golonit	-2298
metanit	-2299
▁Beleje	-2300
▁Kayapa	-2301
▁Marata	-2302
▁diköri	-2303
▁dwönin	-2304
▁gwigwi	-2305
▁kanyöm	-2306
▁kawute	-2307
▁kokori	-2308
▁koriri	-2309
▁kuddye	-2310
▁kwelen	-2311
▁köbilu	-2312
▁köpukö	-2313
▁lilije	-2314
▁lulujö	-2315
▁mamana	-2316
▁miajin	-2317
▁nyaret	-2318
▁nyöggu	-2319
▁pupura	-2320
▁ropesi	-2321
▁ryöryö	-2322
▁todinö	-2323
▁tokuki	-2324
▁toyujö	-2325
▁tutule	-2326
▁wuddya	-2327
▁ŋedepa	-2328
dikindye	-2329
▁Betania	-2330
▁Yardene	-2331
▁böböndu	-2332
▁kakarju	-2333
▁kakuruk	-2334
▁kokobbu	-2335
▁kolanit	-2336
▁kukurun	-2337
▁köpuröt	-2338
▁laundye	-2339
▁letajin	-2340
▁lulalet	-2341
▁lurutat	-2342
▁milyeji	-2343
▁oŋgwora	-2344
▁todelya	-2345
▁tojubbi	-2346
▁tomorja	-2347
▁tutuŋge	-2348
▁Kulyaesi	-2349
▁Laodikia	-2350
▁Magadala	-2351
▁karyakak	-2352
▁mimindya	-2353
▁nyakwari	-2354
▁pakindya	-2355
▁toluddya	-2356
▁wukundyö	-2357
bukökindye	-2358
durökindye	-2359
▁Parusityo	-2360
▁gwiliŋisi	-2361
▁gwogwoloŋ	-2362
▁kayupönit	-2363
▁kulyajine	-2364
▁kwekwelen	-2365
▁lwölwöŋgu	-2366
▁nyönyöggu	-2367
▁paganojin	-2368
▁pipitökin	-2369
▁tokulyaki	-2370
▁wiwinyesi	-2371
▁Belejebula	-2372
▁Merenyejin	-2373
▁jupukindya	-2374
▁ködudwölön	-2375
▁löpukundye	-2376
▁sopakindya	-2377
▁tetenakindya	-2378
▁nyönyökökindyö	-2379
ek	-2380
aji	-2381
bil	-2382
dia	-2383
eto	-2384
iŋa	-2385
jak	-2386
kön	-2387
lil	-2388
moŋ	-2389
rne	-2390
set	-2391
uji	-2392
ura	-2393
▁Su	-2394
▁kw	-2395
alon	-2396
area	-2397
bitö	-2398
dari	-2399
ddyö	-2400
dele	-2401
doka	-2402
dula	-2403
dwat	-2404
etep	-2405
jaro	-2406
lani	-2407
onyo	-2408
yeji	-2409
yure	-2410
yöŋö	-2411
ökur	-2412
▁Ana	-2413
▁Iuŋ	-2414
▁Kat	-2415
▁Kip	-2416
▁Kon	-2417
▁Kur	-2418
▁Nat	-2419
▁Noa	-2420
▁Tes	-2421
▁baŋ	-2422
▁bön	-2423
▁din	-2424
▁dyö	-2425
▁gal	-2426
▁gwa	-2427
▁lak	-2428
▁nap	-2429
▁san	-2430
▁twa	-2431
▁wat	-2432
dotet	-2433
duatu	-2434
dumun	-2435
iŋwan	-2436
jakwa	-2437
jarak	-2438
kaddu	-2439
leleŋ	-2440
lilyö	-2441
meona	-2442
otyaŋ	-2443
rinto	-2444
uröki	-2445
▁Ales	-2446
▁Kawe	-2447
▁Kepa	-2448
▁Lewi	-2449
▁Lyöŋ	-2450
▁Nake	-2451
▁baba	-2452
▁dodo	-2453
▁dyaŋ	-2454
▁gaga	-2455
▁gala	-2456
▁kate	-2457
▁kene	-2458
▁kuIo	-2459
▁limu	-2460
▁malo	-2461
▁misa	-2462
▁niŋa	-2463
▁paji	-2464
▁puri	-2465
▁rigw	-2466
▁sese	-2467
▁tomo	-2468
▁topi	-2469
▁töiI	-2470
▁wuwu	-2471
▁yoyo	-2472
▁ŋadi	-2473
▁ŋode	-2474
boriet	-2475
rnelio	-2476
örikin	-2477
▁Geena	-2478
▁Ködyö	-2479
▁Perok	-2480
▁Pondi	-2481
▁Setep	-2482
▁Toron	-2483
▁arabi	-2484
▁bökur	-2485
▁dendi	-2486
▁dirja	-2487
▁dumba	-2488
▁geIeŋ	-2489
▁gelwe	-2490
▁gorom	-2491
▁gumbe	-2492
▁gweye	-2493
▁kabul	-2494
▁kalup	-2495
▁kamet	-2496
▁karya	-2497
▁kimak	-2498
▁koret	-2499
▁körit	-2500
▁laija	-2501
▁lubbö	-2502
▁lwöki	-2503
▁mandi	-2504
▁murut	-2505
▁nator	-2506
▁nugga	-2507
▁nyara	-2508
▁riŋga	-2509
▁ryöni	-2510
▁sunyü	-2511
▁teŋgi	-2512
▁tikön	-2513
▁tirik	-2514
▁topuk	-2515
▁torja	-2516
▁torüt	-2517
▁twane	-2518
▁yokia	-2519
▁yuggu	-2520
▁yukan	-2521
▁yöŋgi	-2522
▁ŋandi	-2523
▁ŋaŋar	-2524
▁ŋirje	-2525
alonike	-2526
moranit	-2527
▁Kabati	-2528
▁Lajaro	-2529
▁Nyarju	-2530
▁bodwat	-2531
▁gubaji	-2532
▁katoku	-2533
▁katoru	-2534
▁kindyö	-2535
▁korani	-2536
▁kukuka	-2537
▁kömiru	-2538
▁luluje	-2539
▁luŋuni	-2540
▁lwöggi	-2541
▁nyöggi	-2542
▁pilili	-2543
▁rumara	-2544
▁sanduk	-2545
▁sukuri	-2546
▁suluwa	-2547
▁torela	-2548
▁tukara	-2549
▁tulyöŋ	-2550
▁tunyar	-2551
▁wuröri	-2552
▁wöröji	-2553
▁yimönö	-2554
▁yöyöŋö	-2555
▁ŋudula	-2556
durundyö	-2557
▁Andarea	-2558
▁Korinto	-2559
▁Melesen	-2560
▁Simeona	-2561
▁baraddu	-2562
▁kayukuk	-2563
▁kijakwa	-2564
▁kitaesi	-2565
▁köturön	-2566
▁lwököni	-2567
▁lyaŋesi	-2568
▁morinet	-2569
▁nyenyei	-2570
▁paleleŋ	-2571
▁pitökin	-2572
▁purutat	-2573
▁pölilyö	-2574
▁titinti	-2575
▁toiŋwan	-2576
▁totodin	-2577
▁yöyöŋgu	-2578
▁Kipundye	-2579
▁Kornelio	-2580
▁Setepano	-2581
▁jakindye	-2582
▁jujuwesi	-2583
▁lokundya	-2584
▁lupundyö	-2585
▁pependya	-2586
▁pipindya	-2587
▁pipitöki	-2588
▁sonyoddi	-2589
▁tokoanan	-2590
▁tokotyaŋ	-2591
▁tugwörji	-2592
▁tugwörju	-2593
▁tutunyar	-2594
▁twatwane	-2595
▁wulundye	-2596
▁ŋarundye	-2597
▁ŋökindyö	-2598
▁gwörundye	-2599
▁kakitanit	-2600
▁kwakwaset	-2601
▁kwekwekin	-2602
▁loguyajin	-2603
▁todelyaju	-2604
▁tokujöndu	-2605
▁tumatyane	-2606
▁Tesalonike	-2607
▁kanyaranit	-2608
▁ropakindya	-2609
▁rukökindye	-2610
▁Kabatisanit	-2611
▁katomoranit	-2612
▁margaritajin	-2613
Iö	-2614
io	-2615
▁!	-2616
▁o	-2617
ali	-2618
alu	-2619
bba	-2620
eŋe	-2621
kon	-2622
lwö	-2623
mbu	-2624
mon	-2625
tal	-2626
tyo	-2627
öju	-2628
▁At	-2629
▁Di	-2630
▁Mo	-2631
▁Ra	-2632
▁bi	-2633
arak	-2634
baki	-2635
bero	-2636
depe	-2637
doma	-2638
duŋi	-2639
döyö	-2640
eten	-2641
gulu	-2642
gwör	-2643
iabe	-2644
inai	-2645
kaya	-2646
onit	-2647
poni	-2648
poro	-2649
reki	-2650
riki	-2651
roko	-2652
sesi	-2653
ulak	-2654
öggu	-2655
▁Lor	-2656
▁Per	-2657
▁Rur	-2658
▁Twö	-2659
▁adI	-2660
▁bab	-2661
▁kek	-2662
▁koŋ	-2663
▁kwa	-2664
▁lai	-2665
▁peŋ	-2666
▁sus	-2667
▁tyo	-2668
▁yak	-2669
▁yaŋ	-2670
araba	-2671
buluŋ	-2672
dajin	-2673
dekta	-2674
dikin	-2675
duruu	-2676
eleme	-2677
galaŋ	-2678
gonya	-2679
iriku	-2680
korit	-2681
korok	-2682
lokak	-2683
rijin	-2684
talia	-2685
unyak	-2686
yitwe	-2687
▁Böŋö	-2688
▁Isik	-2689
▁Köji	-2690
▁Malo	-2691
▁Nene	-2692
▁Paro	-2693
▁Rome	-2694
▁Tiji	-2695
▁Yapo	-2696
▁gube	-2697
▁kidi	-2698
▁köpu	-2699
▁lölö	-2700
▁mana	-2701
▁mono	-2702
▁nana	-2703
▁nanu	-2704
▁pape	-2705
▁pete	-2706
▁reki	-2707
▁riri	-2708
▁rugw	-2709
▁rume	-2710
▁tata	-2711
▁tiji	-2712
▁tobu	-2713
▁wale	-2714
▁wore	-2715
▁ŋaki	-2716
▁ŋoŋo	-2717
▁ŋuti	-2718
▁ŋöki	-2719
ariota	-2720
biddyö	-2721
depaji	-2722
dotesi	-2723
dumara	-2724
iliyak	-2725
oronit	-2726
yalaki	-2727
▁Akaya	-2728
▁Kabul	-2729
▁Kölip	-2730
▁Sinai	-2731
▁Teten	-2732
▁bukön	-2733
▁gelun	-2734
▁goŋet	-2735
▁gwagw	-2736
▁jigge	-2737
▁kebbi	-2738
▁keesi	-2739
▁kendi	-2740
▁kobbi	-2741
▁kukuk	-2742
▁kurju	-2743
▁kurjö	-2744
▁kweji	-2745
▁lelya	-2746
▁lilik	-2747
▁lokwe	-2748
▁luluŋ	-2749
▁maili	-2750
▁mölwö	-2751
▁parar	-2752
▁piyun	-2753
▁robba	-2754
▁ruruk	-2755
▁rurut	-2756
▁sugge	-2757
▁teton	-2758
▁tolut	-2759
▁towor	-2760
▁toŋot	-2761
▁wowon	-2762
▁wulek	-2763
▁yeyeo	-2764
▁yöyöŋ	-2765
dumaddi	-2766
marikin	-2767
oŋundya	-2768
▁Ambata	-2769
▁Atenai	-2770
▁Baraba	-2771
▁Italia	-2772
▁Kurete	-2773
▁Kölöki	-2774
▁Rurwan	-2775
▁Sodoma	-2776
▁Tinate	-2777
▁babati	-2778
▁gobero	-2779
▁gubaki	-2780
▁gwulüt	-2781
▁jujuja	-2782
▁jujuje	-2783
▁kelaji	-2784
▁kotesi	-2785
▁kölörö	-2786
▁loponi	-2787
▁lupöri	-2788
▁lyöŋgi	-2789
▁memeri	-2790
▁mindya	-2791
▁mömöju	-2792
▁mömörö	-2793
▁pelela	-2794
▁pondya	-2795
▁rikörö	-2796
▁ruddya	-2797
▁rwöddu	-2798
▁ryaggu	-2799
▁ryoryo	-2800
▁toliki	-2801
▁torüsi	-2802
▁twakin	-2803
▁wöidio	-2804
▁yiŋani	-2805
gweyanit	-2806
wakwasak	-2807
▁gogonya	-2808
▁kabulak	-2809
▁kakitak	-2810
▁koraddu	-2811
▁kupöjin	-2812
▁kölöddu	-2813
▁köpukön	-2814
▁lokomoŋ	-2815
▁mandara	-2816
▁pipinya	-2817
▁pödöjin	-2818
▁riköddi	-2819
▁tatakin	-2820
▁tokoret	-2821
▁torigwo	-2822
▁wulökin	-2823
▁yiyitwe	-2824
▁Beteleme	-2825
▁bandujin	-2826
▁dakundya	-2827
▁delyaesi	-2828
▁gwigwien	-2829
▁jölöbiya	-2830
▁kanyömök	-2831
▁katatuak	-2832
▁kudyakan	-2833
▁kölökine	-2834
▁lulurara	-2835
▁lwakatyo	-2836
▁lyölyöŋi	-2837
▁minyojin	-2838
▁nyenagon	-2839
▁nyenyesu	-2840
▁nyomotti	-2841
▁pakindye	-2842
▁pikundye	-2843
▁pitundyö	-2844
▁pupuresi	-2845
▁tirikwet	-2846
▁tokuöddu	-2847
▁wukindye	-2848
bikikindyö	-2849
delakindya	-2850
depakindye	-2851
▁Iuŋasirik	-2852
▁Kabulönit	-2853
▁kaliliyak	-2854
▁kamörönit	-2855
▁katokorok	-2856
▁katujarak	-2857
▁kayukunit	-2858
▁lokoyokak	-2859
▁maratejin	-2860
▁wurörikin	-2861
▁Isikariota	-2862
▁gweyarijin	-2863
▁jupukindye	-2864
▁katatuanit	-2865
▁katokuönit	-2866
▁katoruönit	-2867
▁kölökindyö	-2868
▁momorundya	-2869
▁tokwelenyo	-2870
▁tolikindye	-2871
▁totokuöddu	-2872
▁Katogolonit	-2873
▁kakwakwasak	-2874
▁kamemetanit	-2875
▁kapepenanit	-2876
▁pararakindye	-2877
▁tetemakindya	-2878
▁todinikindyö	-2879
Do	-2880
Ia	-2881
In	-2882
ep	-2883
wo	-2884
ŋu	-2885
Dum	-2886
dio	-2887
ebe	-2888
eli	-2889
ira	-2890
mbe	-2891
ote	-2892
oŋi	-2893
pat	-2894
pit	-2895
pri	-2896
ren	-2897
uko	-2898
yut	-2899
ölö	-2900
▁Ag	-2901
▁De	-2902
▁Ga	-2903
▁Go	-2904
▁Gu	-2905
▁TL	-2906
▁Tö	-2907
▁ne	-2908
alam	-2909
alau	-2910
ande	-2911
arji	-2912
bani	-2913
bili	-2914
bule	-2915
dana	-2916
deja	-2917
dika	-2918
disi	-2919
döni	-2920
elet	-2921
isar	-2922
kise	-2923
lija	-2924
nesi	-2925
nyak	-2926
otet	-2927
oŋon	-2928
pere	-2929
prio	-2930
riot	-2931
ruki	-2932
sito	-2933
tolo	-2934
utöt	-2935
yara	-2936
yeni	-2937
yuni	-2938
▁Apo	-2939
▁Bia	-2940
▁Gwo	-2941
▁IiI	-2942
▁Kak	-2943
▁Lon	-2944
▁Rom	-2945
▁bau	-2946
▁dur	-2947
▁jor	-2948
▁jul	-2949
▁kuu	-2950
▁lik	-2951
▁mak	-2952
▁nit	-2953
▁nuk	-2954
▁rus	-2955
▁sum	-2956
▁tot	-2957
▁tus	-2958
▁wak	-2959
▁war	-2960
arere	-2961
atayo	-2962
baŋin	-2963
bejin	-2964
biyet	-2965
boria	-2966
bunun	-2967
buryo	-2968
böŋön	-2969
diloŋ	-2970
dukök	-2971
döria	-2972
eroia	-2973
ikesi	-2974
ilisi	-2975
laddu	-2976
lakin	-2977
rakin	-2978
uruki	-2979
wöddu	-2980
yilan	-2981
yuddu	-2982
▁Gwon	-2983
▁Ioko	-2984
▁Iŋgo	-2985
▁Kune	-2986
▁Mana	-2987
▁Mele	-2988
▁Nebi	-2989
▁Niko	-2990
▁Sala	-2991
▁Sara	-2992
▁Tiki	-2993
▁bata	-2994
▁dika	-2995
▁dwöt	-2996
▁kaja	-2997
▁kaŋa	-2998
▁keji	-2999
▁kele	-3000
▁kijo	-3001
▁kiki	-3002
▁kume	-3003
▁laka	-3004
▁lote	-3005
▁luru	-3006
▁lömö	-3007
▁malu	-3008
▁mane	-3009
▁miri	-3010
▁ndyö	-3011
▁nyei	-3012
▁puku	-3013
▁pura	-3014
▁pötö	-3015
▁rwör	-3016
▁sasa	-3017
▁sopa	-3018
▁tawe	-3019
▁toye	-3020
▁tuja	-3021
▁tulö	-3022
▁ture	-3023
▁wukö	-3024
▁wuya	-3025
▁yiŋe	-3026
▁yoŋe	-3027
▁ŋani	-3028
anaele	-3029
andero	-3030
anijin	-3031
beleŋo	-3032
biddye	-3033
biliki	-3034
buköki	-3035
delaki	-3036
dikolo	-3037
dororo	-3038
dupien	-3039
duruun	-3040
gwörju	-3041
ilikia	-3042
iloama	-3043
mönöju	-3044
oŋanit	-3045
pudien	-3046
rakwan	-3047
ululök	-3048
watira	-3049
yurani	-3050
öpugge	-3051
▁Diana	-3052
▁Ebele	-3053
▁Ebere	-3054
▁Kalau	-3055
▁Kinyo	-3056
▁Kondi	-3057
▁Mörji	-3058
▁Sonyo	-3059
▁Suria	-3060
▁Temba	-3061
▁Todin	-3062
▁Tomor	-3063
▁Turoa	-3064
▁Twöji	-3065
▁Yiŋge	-3066
▁denet	-3067
▁denun	-3068
▁doggi	-3069
▁domba	-3070
▁giran	-3071
▁gotet	-3072
▁gugwö	-3073
▁gweji	-3074
▁jakin	-3075
▁kakon	-3076
▁kalet	-3077
▁katok	-3078
▁kiyaŋ	-3079
▁kotet	-3080
▁laŋet	-3081
▁liabe	-3082
▁loloŋ	-3083
▁loŋio	-3084
▁lujin	-3085
▁mandu	-3086
▁mayat	-3087
▁meran	-3088
▁metet	-3089
▁moken	-3090
▁muket	-3091
▁mumut	-3092
▁nakoŋ	-3093
▁opere	-3094
▁peddi	-3095
▁piyet	-3096
▁reara	-3097
▁robbi	-3098
▁ruket	-3099
▁tanya	-3100
▁tupet	-3101
▁turya	-3102
▁tutum	-3103
duundye	-3104
kisedek	-3105
▁Beroia	-3106
▁Kaisar	-3107
▁Kristi	-3108
▁Kuprio	-3109
▁Marako	-3110
▁Matayo	-3111
▁Miriku	-3112
▁Mulökö	-3113
▁Nyomot	-3114
▁Tukiko	-3115
▁Yasona	-3116
▁Yeyeji	-3117
▁arabia	-3118
▁dikara	-3119
▁diniki	-3120
▁gubani	-3121
▁gugubu	-3122
▁gureki	-3123
▁gwegwe	-3124
▁jajama	-3125
▁jeitun	-3126
▁joŋani	-3127
▁jundyö	-3128
▁jölöri	-3129
▁kamuka	-3130
▁kaŋöök	-3131
▁kindye	-3132
▁korodo	-3133
▁koropo	-3134
▁lakani	-3135
▁lalawe	-3136
▁lojore	-3137
▁lokore	-3138
▁lomeri	-3139
▁lupene	-3140
▁lurwat	-3141
▁lwöŋgu	-3142
▁mamala	-3143
▁nyökwe	-3144
▁purani	-3145
▁puresi	-3146
▁purwat	-3147
▁riöddi	-3148
▁ruddye	-3149
▁rugwuŋ	-3150
▁rwöddi	-3151
▁sulüsi	-3152
▁sumuti	-3153
▁togolo	-3154
▁tojumu	-3155
▁tokita	-3156
▁tolien	-3157
▁toruje	-3158
▁totogo	-3159
▁totoke	-3160
▁totore	-3161
▁twanti	-3162
▁woŋesi	-3163
▁wuddye	-3164
▁wusaji	-3165
▁yeyema	-3166
▁yiŋesi	-3167
▁yöŋöni	-3168
▁ŋodeki	-3169
▁ŋoroko	-3170
bikikine	-3171
depajine	-3172
▁Galatia	-3173
▁Kilikia	-3174
▁Romatyo	-3175
▁delyani	-3176
▁gubaddu	-3177
▁jamaddu	-3178
▁kalupök	-3179
▁kaŋajin	-3180
▁kiloloŋ	-3181
▁kiyaddu	-3182
▁kuIyani	-3183
▁kurubat	-3184
▁likiörö	-3185
▁milyeki	-3186
▁mödirön	-3187
▁mödöria	-3188
▁mömörju	-3189
▁möröddi	-3190
▁pukökin	-3191
▁rigwökö	-3192
▁rimajin	-3193
▁riundye	-3194
▁sösörju	-3195
▁tatuani	-3196
▁tobuker	-3197
▁toburyo	-3198
▁tokukin	-3199
▁tolutan	-3200
▁totoggi	-3201
▁tukwölö	-3202
▁tutuŋet	-3203
▁yuyubbö	-3204
▁yuyuket	-3205
▁Tuwatira	-3206
▁denundye	-3207
▁gigiruki	-3208
▁kikitari	-3209
▁kipundyö	-3210
▁kokonaki	-3211
▁mailijin	-3212
▁meleseno	-3213
▁mumuluka	-3214
▁mönundyö	-3215
▁namunyak	-3216
▁naparere	-3217
▁narakwan	-3218
▁nyömöddu	-3219
▁pipilesi	-3220
▁pipilisi	-3221
▁piyundye	-3222
▁ropakine	-3223
▁teteyone	-3224
▁tolikesi	-3225
▁yeŋundya	-3226
▁yöyöŋesi	-3227
▁ŋoŋolija	-3228
duŋökindye	-3229
▁Katoŋanit	-3230
▁Kölipönit	-3231
▁Natanaele	-3232
▁kametanit	-3233
▁kapepenak	-3234
▁lawerikin	-3235
▁lwökundyö	-3236
▁mumuluket	-3237
▁nagululök	-3238
▁roparikin	-3239
▁roropakin	-3240
▁rwörwöddu	-3241
▁todumalan	-3242
▁togiraddu	-3243
▁tokoyokan	-3244
▁tokujöndi	-3245
▁ŋaŋarakin	-3246
▁Alesandero	-3247
▁rukökindyö	-3248
▁tatuarikin	-3249
▁tolikindyö	-3250
▁tolupudien	-3251
▁toyimönöju	-3252
▁tutumatyan	-3253
▁yatakindya	-3254
▁Melekisedek	-3255
▁gwörökindyö	-3256
▁katokoronit	-3257
▁milyekindye	-3258
▁nyönyökökin	-3259
▁sunyukindye	-3260
▁tumatyanjin	-3261
▁kokorakindye	-3262
▁momorakindye	-3263
▁tutuŋökindyö	-3264
).	-3265
kw	-3266
kö	-3267
mp	-3268
sö	-3269
ŋa	-3270
Iök	-3271
Iön	-3272
Nan	-3273
ati	-3274
bbe	-3275
bet	-3276
bok	-3277
dom	-3278
doŋ	-3279
dut	-3280
eop	-3281
ere	-3282
esI	-3283
gun	-3284
ika	-3285
ini	-3286
jur	-3287
jwe	-3288
kim	-3289
kun	-3290
mbö	-3291
nan	-3292
opa	-3293
pok	-3294
rim	-3295
rju	-3296
ruŋ	-3297
rwö	-3298
rye	-3299
sau	-3300
sin	-3301
son	-3302
tut	-3303
usa	-3304
ösi	-3305
ŋtu	-3306
▁Bu	-3307
▁Ik	-3308
▁no	-3309
▁sɛ	-3310
▁tI	-3311
batu	-3312
bede	-3313
beko	-3314
busa	-3315
bönö	-3316
dayo	-3317
diki	-3318
dioŋ	-3319
dita	-3320
dona	-3321
dore	-3322
erak	-3323
etyo	-3324
inyö	-3325
jikö	-3326
laki	-3327
lapa	-3328
lelu	-3329
lome	-3330
loni	-3331
maki	-3332
mayo	-3333
mpul	-3334
nine	-3335
oaja	-3336
onio	-3337
oŋgi	-3338
paki	-3339
poli	-3340
pukö	-3341
puni	-3342
rabi	-3343
rene	-3344
resi	-3345
rian	-3346
riko	-3347
roja	-3348
rugu	-3349
ulan	-3350
unie	-3351
wate	-3352
wöki	-3353
▁Aba	-3354
▁Akw	-3355
▁Aso	-3356
▁Epa	-3357
▁Kan	-3358
▁Kaŋ	-3359
▁Mön	-3360
▁Ter	-3361
▁Tot	-3362
▁Tun	-3363
▁Tör	-3364
▁aka	-3365
▁ber	-3366
▁gur	-3367
▁kwɛ	-3368
▁köm	-3369
▁lii	-3370
▁mij	-3371
▁pat	-3372
▁pet	-3373
▁pun	-3374
▁ret	-3375
▁rum	-3376
▁siw	-3377
▁yek	-3378
▁ŋöi	-3379
Indye	-3380
barin	-3381
beria	-3382
betan	-3383
boggi	-3384
bukwe	-3385
butun	-3386
diesi	-3387
dukin	-3388
durje	-3389
duŋga	-3390
duŋge	-3391
duŋök	-3392
elise	-3393
galan	-3394
ilyaŋ	-3395
ilyet	-3396
inewe	-3397
inike	-3398
jumbu	-3399
logon	-3400
mönik	-3401
ruŋin	-3402
unaki	-3403
worok	-3404
wökön	-3405
yaŋgu	-3406
yurje	-3407
önyök	-3408
ŋutut	-3409
▁Aris	-3410
▁Esau	-3411
▁Iege	-3412
▁Kaŋö	-3413
▁Kene	-3414
▁Kiko	-3415
▁Lori	-3416
▁Loto	-3417
▁Midi	-3418
▁Paji	-3419
▁Raba	-3420
▁Rima	-3421
▁Seke	-3422
▁Teop	-3423
▁Togo	-3424
▁Toke	-3425
▁Yiyi	-3426
▁gine	-3427
▁jikö	-3428
▁kaje	-3429
▁kamo	-3430
▁kasɛ	-3431
▁kawu	-3432
▁kinɛ	-3433
▁koji	-3434
▁kora	-3435
▁kuni	-3436
▁kunɛ	-3437
▁kwet	-3438
▁leru	-3439
▁lure	-3440
▁muit	-3441
▁muke	-3442
▁mulu	-3443
▁nama	-3444
▁ndye	-3445
▁nutu	-3446
▁nyek	-3447
▁peŋa	-3448
▁rara	-3449
▁seji	-3450
▁sira	-3451
▁soso	-3452
▁suki	-3453
▁taka	-3454
▁titi	-3455
▁toge	-3456
▁tora	-3457
▁tule	-3458
▁tuma	-3459
▁wawa	-3460
▁wiwi	-3461
▁wulu	-3462
▁wöli	-3463
▁yala	-3464
▁ŋaet	-3465
▁ŋeŋe	-3466
▁ŋöit	-3467
deleji	-3468
depaki	-3469
dutesi	-3470
eletyo	-3471
ilityo	-3472
jinöti	-3473
leluya	-3474
mundya	-3475
riatyo	-3476
ryeesi	-3477
ukanat	-3478
umajin	-3479
urönit	-3480
▁Abiya	-3481
▁Alapa	-3482
▁Apolo	-3483
▁Arabi	-3484
▁Arona	-3485
▁Balam	-3486
▁Boaja	-3487
▁Gwoso	-3488
▁Kaden	-3489
▁Kunie	-3490
▁Kweki	-3491
▁Loron	-3492
▁Lyöŋi	-3493
▁Mugun	-3494
▁Nyare	-3495
▁Piris	-3496
▁Ponto	-3497
▁Pusök	-3498
▁Sardi	-3499
▁Tindi	-3500
▁baŋun	-3501
▁böndi	-3502
▁böndu	-3503
▁dabur	-3504
▁dakwe	-3505
▁gumba	-3506
▁gwije	-3507
▁gwijö	-3508
▁gwoja	-3509
▁gwoji	-3510
▁jolan	-3511
▁jurak	-3512
▁jurut	-3513
▁kalya	-3514
▁kamba	-3515
▁kateŋ	-3516
▁keken	-3517
▁kobbu	-3518
▁kurut	-3519
▁kuyum	-3520
▁kwake	-3521
▁kwara	-3522
▁kölwe	-3523
▁körji	-3524
▁laggu	-3525
▁laŋgu	-3526
▁linyö	-3527
▁logga	-3528
▁lotor	-3529
▁luŋun	-3530
▁lömbu	-3531
▁mamat	-3532
▁meliŋ	-3533
▁melon	-3534
▁milin	-3535
▁mugge	-3536
▁nanaŋ	-3537
▁ryeni	-3538
▁ryoka	-3539
▁ryöun	-3540
▁soson	-3541
▁togwo	-3542
▁tokit	-3543
▁toran	-3544
▁torji	-3545
▁totor	-3546
▁toyem	-3547
▁tujar	-3548
▁töggu	-3549
▁töiIi	-3550
▁tökit	-3551
▁wakun	-3552
▁wandu	-3553
▁waŋet	-3554
▁wugge	-3555
▁wukin	-3556
▁wöwör	-3557
▁yatet	-3558
▁ŋandu	-3559
▁ŋikin	-3560
▁ŋorju	-3561
delakin	-3562
dioŋjin	-3563
dorowet	-3564
dukötyo	-3565
ebedayo	-3566
ikindye	-3567
rugujin	-3568
ukindye	-3569
unyukin	-3570
yörikin	-3571
▁Akwila	-3572
▁IiIija	-3573
▁Ikonio	-3574
▁Konyen	-3575
▁Kwakwa	-3576
▁Ködini	-3577
▁Lyöŋön	-3578
▁Manase	-3579
▁Ninewe	-3580
▁Nyakwa	-3581
▁Pelise	-3582
▁Sidona	-3583
▁Yiŋani	-3584
▁bubuIö	-3585
▁bulesi	-3586
▁böbönö	-3587
▁dodoto	-3588
▁dukara	-3589
▁gayesi	-3590
▁gigiri	-3591
▁girara	-3592
▁goŋesi	-3593
▁guguba	-3594
▁jorene	-3595
▁jupuni	-3596
▁kalaak	-3597
▁kalaba	-3598
▁kamere	-3599
▁karaki	-3600
▁kinasi	-3601
▁kiteta	-3602
▁kitoni	-3603
▁kukwön	-3604
▁kuliya	-3605
▁kunyar	-3606
▁lalaet	-3607
▁lalaji	-3608
▁leleyo	-3609
▁likiti	-3610
▁lurwök	-3611
▁lwökun	-3612
▁mimien	-3613
▁mindye	-3614
▁momoka	-3615
▁munuki	-3616
▁möröni	-3617
▁nawate	-3618
▁nyunyu	-3619
▁patala	-3620
▁riköji	-3621
▁ririŋa	-3622
▁rukörö	-3623
▁rumöne	-3624
▁ryoggi	-3625
▁tatune	-3626
▁tiddya	-3627
▁titiki	-3628
▁togole	-3629
▁togulu	-3630
▁tolome	-3631
▁toluta	-3632
▁tomora	-3633
▁toraki	-3634
▁totolo	-3635
▁totomi	-3636
▁tuköki	-3637
▁turaki	-3638
▁twayet	-3639
▁welesi	-3640
▁witiöt	-3641
▁wowoja	-3642
▁wöriŋö	-3643
▁yeyeta	-3644
▁yoloni	-3645
▁yoyoko	-3646
▁yökijö	-3647
▁ŋariet	-3648
▁ŋornan	-3649
Dumundye	-3650
dumajine	-3651
tolomayo	-3652
▁Aleluya	-3653
▁Luŋaser	-3654
▁Nebijin	-3655
▁Pilipoi	-3656
▁Poinike	-3657
▁Siloama	-3658
▁Sonyoro	-3659
▁Teopilo	-3660
▁Tiberia	-3661
▁Tunyare	-3662
▁Töilyet	-3663
▁baraddi	-3664
▁baranya	-3665
▁böböndi	-3666
▁galaddi	-3667
▁galaddu	-3668
▁geladdu	-3669
▁ginejin	-3670
▁guralan	-3671
▁gwugwut	-3672
▁gwuluŋö	-3673
▁gwöriet	-3674
▁gwöröji	-3675
▁kakarji	-3676
▁kalokak	-3677
▁kamerak	-3678
▁kamulak	-3679
▁katirut	-3680
▁kaŋarak	-3681
▁kondore	-3682
▁kukulya	-3683
▁kwakwat	-3684
▁kwariat	-3685
▁kökörju	-3686
▁kömutöt	-3687
▁köpuggö	-3688
▁köpuket	-3689
▁laŋaddu	-3690
▁lokiliŋ	-3691
▁loŋaddi	-3692
▁lugalaŋ	-3693
▁mamandu	-3694
▁maraŋgi	-3695
▁misajin	-3696
▁momoggi	-3697
▁mömöndi	-3698
▁möröddu	-3699
▁nagalaŋ	-3700
▁naŋutut	-3701
▁nyolani	-3702
▁putukin	-3703
▁raradan	-3704
▁renyari	-3705
▁rurudwe	-3706
▁ryoryok	-3707
▁sasandi	-3708
▁siwatat	-3709
▁sunyuki	-3710
▁tojumbu	-3711
▁tokelet	-3712
▁tolupet	-3713
▁tomonok	-3714
▁torondi	-3715
▁tukarju	-3716
▁tulöddi	-3717
▁tunyare	-3718
▁tusörju	-3719
▁twötwöi	-3720
▁töiIyet	-3721
▁tömönik	-3722
▁waratat	-3723
▁welakin	-3724
▁wowoŋon	-3725
▁wöwökön	-3726
▁yeyeori	-3727
▁yuyukan	-3728
▁ŋeŋerja	-3729
▁Kalaudio	-3730
▁Kaŋöönit	-3731
▁Koanejin	-3732
▁Mönundye	-3733
▁Saumajin	-3734
▁Toronjin	-3735
▁babatatu	-3736
▁batiddye	-3737
▁batisani	-3738
▁biryeesi	-3739
▁bubulöri	-3740
▁galundya	-3741
▁gubajine	-3742
▁gubakine	-3743
▁gugubatu	-3744
▁gugubuje	-3745
▁gwuruŋin	-3746
▁jikundyö	-3747
▁kamönyök	-3748
▁kanyarak	-3749
▁karenyak	-3750
▁kiyundye	-3751
▁kokoroja	-3752
▁korodoti	-3753
▁kunyarju	-3754
▁kwekweni	-3755
▁kwekweya	-3756
▁kömiruöt	-3757
▁lokworok	-3758
▁lölöpukö	-3759
▁memeddya	-3760
▁milyejin	-3761
▁pararaju	-3762
▁roropaki	-3763
▁rukökine	-3764
▁rusundye	-3765
▁sukindye	-3766
▁tatawero	-3767
▁tojoreji	-3768
▁tokelani	-3769
▁tokitaju	-3770
▁tokoresi	-3771
▁tomoresi	-3772
▁topiriki	-3773
▁totogolo	-3774
▁toŋiyuni	-3775
▁tugwakan	-3776
▁wöriŋöni	-3777
▁yuyukesi	-3778
▁yuyuköri	-3779
▁ŋakindya	-3780
▁ŋöjinöti	-3781
▁ŋökindye	-3782
bukökindyö	-3783
burukindye	-3784
delakindye	-3785
yalakindye	-3786
▁Iokokorit	-3787
▁Kawelonit	-3788
▁Kaweyanit	-3789
▁Kwakwaddi	-3790
▁Yiyiundye	-3791
▁burugijin	-3792
▁gweyundye	-3793
▁gwiliŋara	-3794
▁katelanit	-3795
▁kawurönit	-3796
▁kokonakin	-3797
▁köbilityo	-3798
▁köbuŋötön	-3799
▁laikindya	-3800
▁mumulugge	-3801
▁nyanyarju	-3802
▁nyököjine	-3803
▁romarikin	-3804
▁tomukanat	-3805
▁waragalan	-3806
▁yiyiundyö	-3807
▁yukuundyö	-3808
▁ŋoŋoŋaddu	-3809
▁Nyakwariat	-3810
▁Samariatyo	-3811
▁Totoŋundya	-3812
▁babatiddya	-3813
▁jujukindya	-3814
▁kagweyanit	-3815
▁kenakindya	-3816
▁kwekwenine	-3817
▁mirakindye	-3818
▁mokakindya	-3819
▁morakindye	-3820
▁pitökindye	-3821
▁susunyukin	-3822
▁temejiktyo	-3823
▁tolomerian	-3824
▁tomorundya	-3825
▁tutugwörju	-3826
▁yinikindyö	-3827
▁Bartolomayo	-3828
▁nyökökindye	-3829
▁rugwuŋökine	-3830
▁tanyakindya	-3831
▁Kristianijin	-3832
▁Yisaraeletyo	-3833
▁kikitakindya	-3834
▁momorakindya	-3835
▁tetenakindye	-3836
▁tomorakindya	-3837
▁tukwörienjin	-3838
▁kamumulukanit	-3839
AK	-3840
AY	-3841
Bu	-3842
Du	-3843
It	-3844
Iu	-3845
dɛ	-3846
jI	-3847
no	-3848
uu	-3849
wɛ	-3850
AKI	-3851
DAY	-3852
Iip	-3853
ada	-3854
aru	-3855
bök	-3856
dwa	-3857
döt	-3858
eni	-3859
ite	-3860
kok	-3861
kos	-3862
lim	-3863
lok	-3864
lye	-3865
lyö	-3866
mar	-3867
mie	-3868
mur	-3869
nit	-3870
oja	-3871
ojo	-3872
pia	-3873
pil	-3874
pra	-3875
pun	-3876
pya	-3877
rji	-3878
rud	-3879
rum	-3880
sap	-3881
sea	-3882
seu	-3883
tar	-3884
ton	-3885
uIo	-3886
uda	-3887
ugu	-3888
urö	-3889
uŋö	-3890
wöl	-3891
yil	-3892
yöl	-3893
ŋwe	-3894
▁Ee	-3895
▁Iɛ	-3896
▁Ne	-3897
▁TI	-3898
▁gö	-3899
▁lŋ	-3900
▁rö	-3901
▁yI	-3902
Kilo	-3903
akia	-3904
alik	-3905
aliŋ	-3906
anya	-3907
asan	-3908
atti	-3909
biet	-3910
buku	-3911
bulo	-3912
burt	-3913
daju	-3914
dane	-3915
datu	-3916
demo	-3917
desa	-3918
dije	-3919
dire	-3920
diŋö	-3921
dokɛ	-3922
doto	-3923
dulu	-3924
dumu	-3925
duŋu	-3926
döji	-3927
ebul	-3928
enes	-3929
ente	-3930
enya	-3931
esin	-3932
gwut	-3933
göri	-3934
ilön	-3935
juju	-3936
julö	-3937
jölö	-3938
kiot	-3939
koja	-3940
kone	-3941
meja	-3942
mina	-3943
mora	-3944
oran	-3945
oroŋ	-3946
oŋga	-3947
oŋgo	-3948
pira	-3949
podo	-3950
rasa	-3951
rikö	-3952
ripa	-3953
risi	-3954
rogo	-3955
roni	-3956
ruba	-3957
saki	-3958
sana	-3959
sara	-3960
tikö	-3961
tulo	-3962
ukio	-3963
umit	-3964
umpa	-3965
urio	-3966
urje	-3967
utak	-3968
wano	-3969
wölö	-3970
wöti	-3971
yaka	-3972
yako	-3973
yeju	-3974
yiki	-3975
yiyi	-3976
yoni	-3977
yota	-3978
ölöŋ	-3979
öndi	-3980
öŋöi	-3981
ŋina	-3982
ŋwat	-3983
▁Are	-3984
▁Asa	-3985
▁Awa	-3986
▁Bat	-3987
▁Buk	-3988
▁Den	-3989
▁Eut	-3990
▁Iuk	-3991
▁Iut	-3992
▁Ken	-3993
▁Köt	-3994
▁Mil	-3995
▁Nak	-3996
▁Pur	-3997
▁Ram	-3998
▁Sal	-3999
▁Sip	-4000
▁Sur	-4001
▁Teŋ	-4002
▁Tok	-4003
▁Yak	-4004
▁Yul	-4005
▁ase	-4006
▁dos	-4007
▁duw	-4008
▁dwa	-4009
▁eme	-4010
▁gom	-4011
▁jek	-4012
▁kil	-4013
▁koi	-4014
▁kuj	-4015
▁lal	-4016
▁leg	-4017
▁lil	-4018
▁lya	-4019
▁lye	-4020
▁mat	-4021
▁mit	-4022
▁moŋ	-4023
▁mul	-4024
▁mur	-4025
▁mör	-4026
▁nas	-4027
▁nat	-4028
▁ndi	-4029
▁sak	-4030
▁ser	-4031
▁sös	-4032
▁tis	-4033
▁wit	-4034
▁ŋat	-4035
▁ŋon	-4036
▁ŋök	-4037
abari	-4038
adaba	-4039
akayo	-4040
amali	-4041
ataya	-4042
belio	-4043
bogga	-4044
bunuk	-4045
delet	-4046
dibbe	-4047
diket	-4048
dugge	-4049
dumba	-4050
dumbe	-4051
duŋak	-4052
duŋin	-4053
enaio	-4054
ggiöt	-4055
gwoso	-4056
gwörö	-4057
isimo	-4058
joŋak	-4059
konia	-4060
kosta	-4061
likin	-4062
liliŋ	-4063
limöt	-4064
mbere	-4065
morok	-4066
murna	-4067
opago	-4068
orama	-4069
pipil	-4070
piret	-4071
popok	-4072
raddi	-4073
rusut	-4074
rutyo	-4075
sigge	-4076
soddi	-4077
sulak	-4078
sumar	-4079
tonoŋ	-4080
tumbö	-4081
uddye	-4082
uline	-4083
unyun	-4084
wanak	-4085
wanit	-4086
wöddi	-4087
yaggu	-4088
yajin	-4089
yalet	-4090
yukan	-4091
yurja	-4092
yönit	-4093
ökisi	-4094
ököni	-4095
▁Akim	-4096
▁Amon	-4097
▁Anti	-4098
▁Arim	-4099
▁Augu	-4100
▁Bule	-4101
▁Dema	-4102
▁Dene	-4103
▁Edom	-4104
▁Etio	-4105
▁Gayo	-4106
▁Ioŋe	-4107
▁Kese	-4108
▁Kita	-4109
▁Kona	-4110
▁Kosi	-4111
▁Kölu	-4112
▁Lili	-4113
▁Loki	-4114
▁Luka	-4115
▁Lwöl	-4116
▁Niya	-4117
▁Pije	-4118
▁Rabi	-4119
▁Rode	-4120
▁Sili	-4121
▁Sona	-4122
▁Suki	-4123
▁Taru	-4124
▁Teme	-4125
▁Tore	-4126
▁Tosi	-4127
▁Turu	-4128
▁Twan	-4129
▁Yane	-4130
▁Yeŋe	-4131
▁aIip	-4132
▁bodo	-4133
▁buIö	-4134
▁diŋö	-4135
▁dula	-4136
▁goji	-4137
▁gura	-4138
▁gwaŋ	-4139
▁gwel	-4140
▁gwok	-4141
▁gwut	-4142
▁göri	-4143
▁jima	-4144
▁joni	-4145
▁joŋe	-4146
▁julö	-4147
▁kago	-4148
▁kaka	-4149
▁kama	-4150
▁kemi	-4151
▁keyo	-4152
▁kili	-4153
▁kone	-4154
▁kuta	-4155
▁kwök	-4156
▁kökö	-4157
▁laun	-4158
▁liya	-4159
▁lomu	-4160
▁lopi	-4161
▁losi	-4162
▁lömi	-4163
▁mera	-4164
▁meyi	-4165
▁miju	-4166
▁mine	-4167
▁moke	-4168
▁mumu	-4169
▁musö	-4170
▁napa	-4171
▁naŋe	-4172
▁njin	-4173
▁nuka	-4174
▁nyel	-4175
▁nyit	-4176
▁peta	-4177
▁piya	-4178
▁poni	-4179
▁poto	-4180
▁pudi	-4181
▁puke	-4182
▁rade	-4183
▁ropa	-4184
▁ropo	-4185
▁ruda	-4186
▁rudu	-4187
▁rukö	-4188
▁rune	-4189
▁ryar	-4190
▁saka	-4191
▁sala	-4192
▁sonu	-4193
▁suka	-4194
▁tela	-4195
▁teŋe	-4196
▁tiyu	-4197
▁tobe	-4198
▁tuss	-4199
▁tuŋa	-4200
▁tyan	-4201
▁töyi	-4202
▁were	-4203
▁wune	-4204
▁wuyu	-4205
▁wöku	-4206
▁yasi	-4207
▁yaya	-4208
▁yuke	-4209
▁yune	-4210
▁yupe	-4211
▁yupö	-4212
▁ŋane	-4213
▁ŋaru	-4214
▁ŋebi	-4215
▁ŋera	-4216
▁ŋisa	-4217
▁ŋiun	-4218
▁ŋoma	-4219
▁ŋudu	-4220
▁ŋuyu	-4221
DAYAKI	-4222
akakin	-4223
alikan	-4224
aranit	-4225
aroroŋ	-4226
atiele	-4227
bakani	-4228
barinu	-4229
batisa	-4230
bokara	-4231
buddya	-4232
buköji	-4233
busesi	-4234
bököri	-4235
danaji	-4236
diaddi	-4237
dirörö	-4238
dokoro	-4239
duddye	-4240
dumala	-4241
dyadya	-4242
ebulun	-4243
enesar	-4244
eponit	-4245
eranit	-4246
gwöŋtu	-4247
iliŋit	-4248
menaio	-4249
mpulia	-4250
mundye	-4251
mönöni	-4252
nesimo	-4253
patali	-4254
rendya	-4255
rondya	-4256
rudwöt	-4257
sapata	-4258
setura	-4259
taruko	-4260
unöggu	-4261
wörien	-4262
yutuki	-4263
ŋundye	-4264
▁Agara	-4265
▁Benya	-4266
▁Demet	-4267
▁Iikaŋ	-4268
▁Kaina	-4269
▁Kasar	-4270
▁Kayuk	-4271
▁Kemia	-4272
▁Ludia	-4273
▁Lukio	-4274
▁Luŋgi	-4275
▁Madaŋ	-4276
▁Matia	-4277
▁Moran	-4278
▁Nator	-4279
▁Nyeit	-4280
▁PauIo	-4281
▁Pente	-4282
▁Riörö	-4283
▁Sadok	-4284
▁Sarji	-4285
▁Taliŋ	-4286
▁Yisai	-4287
▁Yoana	-4288
▁Yosia	-4289
▁baŋki	-4290
▁biryö	-4291
▁dilyö	-4292
▁dinök	-4293
▁duduk	-4294
▁durwe	-4295
▁döndi	-4296
▁gajin	-4297
▁gayet	-4298
▁gigin	-4299
▁gweki	-4300
▁gwigw	-4301
▁gwiyö	-4302
▁jojoŋ	-4303
▁jurje	-4304
▁jweni	-4305
▁kanit	-4306
▁karik	-4307
▁kikin	-4308
▁kindu	-4309
▁kolak	-4310
▁konet	-4311
▁korji	-4312
▁kugge	-4313
▁kukun	-4314
▁kwaje	-4315
▁kweye	-4316
▁kwökö	-4317
▁lalai	-4318
▁laŋgi	-4319
▁leusa	-4320
▁lodon	-4321
▁loket	-4322
▁lotek	-4323
▁loŋon	-4324
▁luluk	-4325
▁lusök	-4326
▁lŋkoi	-4327
▁mimij	-4328
▁mirun	-4329
▁mörit	-4330
▁namet	-4331
▁narwö	-4332
▁naŋgu	-4333
▁nuddi	-4334
▁nyelo	-4335
▁nöggu	-4336
▁pakin	-4337
▁pigga	-4338
▁pilan	-4339
▁pondI	-4340
▁puriu	-4341
▁purja	-4342
▁purwe	-4343
▁putut	-4344
▁pöggu	-4345
▁raele	-4346
▁rigge	-4347
▁riŋön	-4348
▁rogga	-4349
▁rubaŋ	-4350
▁saani	-4351
▁sapya	-4352
▁sasar	-4353
▁sonye	-4354
▁sukin	-4355
▁teteŋ	-4356
▁torok	-4357
▁toyuö	-4358
▁tukwa	-4359
▁tuyat	-4360
▁tuyaŋ	-4361
▁twaji	-4362
▁twöni	-4363
▁waset	-4364
▁wekin	-4365
▁wilan	-4366
▁wowoa	-4367
▁wuret	-4368
▁wuyun	-4369
▁yaŋan	-4370
▁yaŋgo	-4371
▁yeŋga	-4372
▁yeŋgi	-4373
▁yukwe	-4374
▁yurum	-4375
▁yuyut	-4376
▁yuŋun	-4377
▁ŋaesi	-4378
▁ŋarji	-4379
▁ŋedep	-4380
▁ŋeret	-4381
▁ŋökin	-4382
▁ŋöŋöi	-4383
Iökötyo	-4384
akIndye	-4385
anduria	-4386
asanyak	-4387
bekoddu	-4388
bikikin	-4389
boriani	-4390
buköddu	-4391
buruddu	-4392
dikasin	-4393
dokoddi	-4394
duundyö	-4395
dötilön	-4396
gwöröki	-4397
ilyaŋak	-4398
jumunit	-4399
liliŋök	-4400
podokia	-4401
pukökin	-4402
rusutöt	-4403
yaladdu	-4404
yanyara	-4405
▁Agripa	-4406
▁Epapra	-4407
▁Eutuko	-4408
▁Gabari	-4409
▁Gamali	-4410
▁Gerasa	-4411
▁Gomora	-4412
▁Gubara	-4413
▁Gworoŋ	-4414
▁Gwunyu	-4415
▁Iudukö	-4416
▁Iukata	-4417
▁Kadesa	-4418
▁Kanana	-4419
▁Kuliya	-4420
▁Kurene	-4421
▁Mileto	-4422
▁Mokosi	-4423
▁Nakwan	-4424
▁Nasona	-4425
▁Parara	-4426
▁Perese	-4427
▁Rabama	-4428
▁Sekeme	-4429
▁Sekine	-4430
▁Togole	-4431
▁Yakulo	-4432
▁Yeriko	-4433
▁Yorama	-4434
▁aseker	-4435
▁belesi	-4436
▁bilili	-4437
▁böŋöji	-4438
▁dedena	-4439
▁didiŋö	-4440
▁doddya	-4441
▁dotoni	-4442
▁dotösi	-4443
▁dukuki	-4444
▁dulaki	-4445
▁dwadwa	-4446
▁gelaki	-4447
▁gigiru	-4448
▁gilösi	-4449
▁gwanan	-4450
▁gwesin	-4451
▁gwugwu	-4452
▁gwörit	-4453
▁gwörun	-4454
▁jijikö	-4455
▁jojore	-4456
▁joŋari	-4457
▁jujulö	-4458
▁jöjölö	-4459
▁jölöni	-4460
▁kagwut	-4461
▁kajuju	-4462
▁kalesi	-4463
▁kekeju	-4464
▁keporo	-4465
▁kinuni	-4466
▁kitaet	-4467
▁kokora	-4468
▁koŋote	-4469
▁koŋuti	-4470
▁kuddya	-4471
▁kulyan	-4472
▁kurutu	-4473
▁kuröji	-4474
▁kuŋwat	-4475
▁kölisi	-4476
▁lalane	-4477
▁lalaun	-4478
▁likiso	-4479
▁logulu	-4480
▁lukuti	-4481
▁lulupö	-4482
▁luluru	-4483
▁lulyan	-4484
▁lyöŋit	-4485
▁löpukö	-4486
▁meliŋa	-4487
▁monoji	-4488
▁morogo	-4489
▁mumukö	-4490
▁murutö	-4491
▁nagulu	-4492
▁nanaŋa	-4493
▁nyeesi	-4494
▁nyobbi	-4495
▁nyonyo	-4496
▁nyökun	-4497
▁nyömbu	-4498
▁pakine	-4499
▁papaki	-4500
▁pipiya	-4501
▁puriun	-4502
▁ririki	-4503
▁ririŋe	-4504
▁roriot	-4505
▁ryakwe	-4506
▁seyara	-4507
▁sirani	-4508
▁suluki	-4509
▁takine	-4510
▁tetene	-4511
▁tiddye	-4512
▁tiriku	-4513
▁tojoju	-4514
▁tomije	-4515
▁torani	-4516
▁toreja	-4517
▁totogi	-4518
▁totopi	-4519
▁totoyu	-4520
▁totoŋi	-4521
▁tugwör	-4522
▁turöji	-4523
▁wiwijö	-4524
▁wowoji	-4525
▁wuköji	-4526
▁wuwuki	-4527
▁wöröri	-4528
▁wöwörö	-4529
▁yanyet	-4530
▁yataki	-4531
▁yeyeti	-4532
▁yiyiun	-4533
▁yiyiŋa	-4534
▁yokone	-4535
▁yoyolo	-4536
▁yuyukö	-4537
▁yöbuöt	-4538
▁yökije	-4539
▁ŋakine	-4540
▁ŋisani	-4541
baŋgajin	-4542
bukundyö	-4543
buköjine	-4544
burtölöŋ	-4545
delakine	-4546
dutundye	-4547
duŋökine	-4548
nesiporo	-4549
punundye	-4550
yalakine	-4551
▁Alapayo	-4552
▁Genesar	-4553
▁Gworolo	-4554
▁Iuyökie	-4555
▁Keseron	-4556
▁Kitajin	-4557
▁Kululuŋ	-4558
▁Kwakwas	-4559
▁Ködudwö	-4560
▁Kötumit	-4561
▁Lorigwo	-4562
▁Ludweki	-4563
▁Lwölwöŋ	-4564
▁Midiyan	-4565
▁Pubelio	-4566
▁Purwene	-4567
▁Samurna	-4568
▁Sipania	-4569
▁Taruseu	-4570
▁Tertulo	-4571
▁Tokelet	-4572
▁Tomoret	-4573
▁Tomorja	-4574
▁Yambere	-4575
▁Yekonia	-4576
▁baranda	-4577
▁böŋöddi	-4578
▁dodogga	-4579
▁durwene	-4580
▁gubakin	-4581
▁gwilili	-4582
▁gwokiot	-4583
▁jajambi	-4584
▁jamaddi	-4585
▁jekaddi	-4586
▁jekaddu	-4587
▁jujumbu	-4588
▁kajoŋak	-4589
▁kakaran	-4590
▁kakonak	-4591
▁kakutak	-4592
▁kametak	-4593
▁kapipil	-4594
▁kapopok	-4595
▁karutyo	-4596
▁kawanak	-4597
▁kaŋerak	-4598
▁kikwöti	-4599
▁kipyala	-4600
▁kiyukan	-4601
▁komoŋga	-4602
▁kopojin	-4603
▁kuggiöt	-4604
▁kulupit	-4605
▁kupiret	-4606
▁kwasesi	-4607
▁kweyani	-4608
▁kweyari	-4609
▁kölwene	-4610
▁laŋaddi	-4611
▁legetyo	-4612
▁lelekun	-4613
▁lilikin	-4614
▁lodirön	-4615
▁lotonoŋ	-4616
▁lujinte	-4617
▁luŋukin	-4618
▁maraŋgu	-4619
▁monowet	-4620
▁monyota	-4621
▁muduŋin	-4622
▁mumutön	-4623
▁musumar	-4624
▁pitakin	-4625
▁puriörö	-4626
▁purwene	-4627
▁ridiket	-4628
▁ririŋga	-4629
▁ropakin	-4630
▁rorweki	-4631
▁rosoddi	-4632
▁rurugga	-4633
▁sasanye	-4634
▁tatuari	-4635
▁tawerju	-4636
▁tetembi	-4637
▁tirikin	-4638
▁todinet	-4639
▁togeIeŋ	-4640
▁togirje	-4641
▁tojolan	-4642
▁tojowet	-4643
▁tojubbu	-4644
▁tojukin	-4645
▁tolikin	-4646
▁tomieni	-4647
▁torigwö	-4648
▁toruöni	-4649
▁totomie	-4650
▁toworja	-4651
▁tugalaŋ	-4652
▁tujambu	-4653
▁tunyeji	-4654
▁tunyeju	-4655
▁tutukar	-4656
▁tölimöt	-4657
▁wititöt	-4658
▁woworan	-4659
▁wuköddu	-4660
▁yalajin	-4661
▁yeyeggi	-4662
▁yeyemba	-4663
▁yeyeoro	-4664
▁yukwene	-4665
▁yuyugge	-4666
▁yuŋweki	-4667
▁yuŋwene	-4668
▁ŋarakin	-4669
▁ŋoŋaddi	-4670
dokarikin	-4671
▁Areopago	-4672
▁Augusito	-4673
▁Batisimo	-4674
▁Gwiliŋit	-4675
▁Kinyojin	-4676
▁Kudyakan	-4677
▁Kurudwöt	-4678
▁Lusetura	-4679
▁Napatali	-4680
▁Nikodemo	-4681
▁Pampulia	-4682
▁Pirisika	-4683
▁Salamona	-4684
▁Siliwano	-4685
▁Yosapata	-4686
▁babatisa	-4687
▁batisaki	-4688
▁diköriöt	-4689
▁galundye	-4690
▁gwegweya	-4691
▁gwigwiun	-4692
▁gwögwörö	-4693
▁görigöri	-4694
▁jamundya	-4695
▁jojokoja	-4696
▁kadyadya	-4697
▁kakwakwa	-4698
▁katugwör	-4699
▁kekeporo	-4700
▁kelajine	-4701
▁kemialan	-4702
▁kenakine	-4703
▁kenundya	-4704
▁kiasirik	-4705
▁kipundye	-4706
▁kiyundya	-4707
▁kokonoja	-4708
▁kokoraki	-4709
▁kokorite	-4710
▁konakine	-4711
▁kulyaesI	-4712
▁kurundye	-4713
▁kwakwasa	-4714
▁löpuköki	-4715
▁löpuköni	-4716
▁morundye	-4717
▁nyaratti	-4718
▁nyerakin	-4719
▁pitökine	-4720
▁pokindye	-4721
▁pukundye	-4722
▁riŋundya	-4723
▁ryoryoka	-4724
▁sonyoddu	-4725
▁sunyukin	-4726
▁tetenari	-4727
▁togolesi	-4728
▁tojoreju	-4729
▁tojumisi	-4730
▁tokelesi	-4731
▁tokuruki	-4732
▁tokuöddi	-4733
▁totokujö	-4734
▁tujamaki	-4735
▁tulyaŋgu	-4736
▁tulyöŋgi	-4737
▁tutundye	-4738
▁wukundye	-4739
▁yimönöni	-4740
▁yiŋundya	-4741
▁yökiöddi	-4742
bilikindye	-4743
dukukindye	-4744
yalakindya	-4745
▁Aminadaba	-4746
▁Arimataya	-4747
▁Benyamina	-4748
▁Demeturio	-4749
▁Gabariele	-4750
▁Gamaliele	-4751
▁Girikityo	-4752
▁Iudukötyo	-4753
▁Kametanit	-4754
▁Kapodokia	-4755
▁Kasaranit	-4756
▁Katodinök	-4757
▁Kayukunit	-4758
▁Murugujin	-4759
▁Paganojin	-4760
▁Salatiele	-4761
▁Tukwörien	-4762
▁arabiajin	-4763
▁dyadyaŋgi	-4764
▁dyadyaŋgu	-4765
▁gugubakin	-4766
▁gurusutöt	-4767
▁gwagwaddi	-4768
▁gwuluŋöji	-4769
▁gwögwöŋtu	-4770
▁jojokaddu	-4771
▁kakeponit	-4772
▁kakonanit	-4773
▁kalupönit	-4774
▁kamomorok	-4775
▁katemanit	-4776
▁kateŋonit	-4777
▁kawutejin	-4778
▁kawuyunit	-4779
▁kikisigge	-4780
▁kitarikin	-4781
▁kwetundye	-4782
▁kwökwöddi	-4783
▁laikindye	-4784
▁lokolokak	-4785
▁lugalaŋak	-4786
▁margarita	-4787
▁nagusulak	-4788
▁naparoroŋ	-4789
▁nyunyumbö	-4790
▁nyömundye	-4791
▁nyönyökit	-4792
▁piyarikin	-4793
▁pupuraddu	-4794
▁rigwököni	-4795
▁sunyundye	-4796
▁sösöpugge	-4797
▁temarikin	-4798
▁tomijöddu	-4799
▁topuökisi	-4800
▁totolikin	-4801
▁tupalikan	-4802
▁tutunöggu	-4803
▁tutuŋökin	-4804
▁Aristaruko	-4805
▁Kagweyanit	-4806
▁Konakindye	-4807
▁Pentekosta	-4808
▁Rubaŋgajin	-4809
▁babatiddye	-4810
▁dosakindya	-4811
▁dukakindya	-4812
▁dumökindye	-4813
▁gwugwutötu	-4814
▁gwögwöröki	-4815
▁julakindya	-4816
▁kagwutönit	-4817
▁kalyöŋönit	-4818
▁kanyömönit	-4819
▁kasasanyak	-4820
▁katwöyönit	-4821
▁kokorakine	-4822
▁korakindya	-4823
▁ködudwöIön	-4824
▁lonyanyara	-4825
▁mömönundyö	-4826
▁namilyaŋak	-4827
▁petakindya	-4828
▁pipitundyö	-4829
▁rurumundye	-4830
▁rurutundya	-4831
▁temakindye	-4832
▁tisakindye	-4833
▁tokukindye	-4834
▁tokwelendi	-4835
▁topukundye	-4836
▁topukundyö	-4837
▁topurundye	-4838
▁torekindya	-4839
▁torekindye	-4840
▁totodumala	-4841
▁totoŋundya	-4842
▁tukwölöŋgi	-4843
▁tukwölöŋgu	-4844
▁wöriŋundye	-4845
▁yatakindye	-4846
▁yukukindyö	-4847
▁Alesanduria	-4848
▁Tumatyanjin	-4849
▁jölöbiyajin	-4850
▁kapipilunit	-4851
▁kapopokanit	-4852
▁katogolonit	-4853
▁linyökindye	-4854
▁lokwekwelen	-4855
▁milyekindyö	-4856
▁nyekakindya	-4857
▁nyömökindye	-4858
▁ryokakindye	-4859
▁totodinöddu	-4860
▁tukararikin	-4861
▁tukwöriendu	-4862
▁yuŋwekindyö	-4863
▁Tetenakindye	-4864
▁mumulukindyö	-4865
▁rerenyarikin	-4866
▁tokurukindye	-4867
▁totorekindya	-4868
▁yuyutakindye	-4869
▁baranyakindya	-4870
▁kakwakwasanit	-4871
▁kwakwasakindya	-4872
,)	-4873
,-	-4874
Bo	-4875
Di	-4876
Dö	-4877
ES	-4878
Ii	-4879
Ra	-4880
Ru	-4881
dü	-4882
ii	-4883
im	-4884
iu	-4885
lɛ	-4886
ry	-4887
rö	-4888
sI	-4889
tö	-4890
tɛ	-4891
▁)	-4892
▁,	-4893
Bar	-4894
Duŋ	-4895
Iin	-4896
Iiŋ	-4897
Ioŋ	-4898
Iya	-4899
Be	-4900
Ke	-4901
Ko	-4902
rI	-4903
tI	-4904
Bul	-4905
Tör	-4906
Yal	-4907
anɛ	-4908
ayo	-4909
boI	-4910
bol	-4911
buy	-4912
dai	-4913
dap	-4914
dea	-4915
deŋ	-4916
dii	-4917
dun	-4918
egi	-4919
eor	-4920
gan	-4921
ger	-4922
göm	-4923
gön	-4924
iik	-4925
ije	-4926
iku	-4927
ile	-4928
ino	-4929
ipa	-4930
itu	-4931
iŋe	-4932
iŋö	-4933
jon	-4934
jöl	-4935
koo	-4936
lem	-4937
lor	-4938
mau	-4939
mun	-4940
mwe	-4941
oki	-4942
one	-4943
onu	-4944
oŋa	-4945
ran	-4946
ree	-4947
rip	-4948
rmo	-4949
rop	-4950
rön	-4951
sIa	-4952
sil	-4953
sio	-4954
sip	-4955
sua	-4956
suk	-4957
sun	-4958
swe	-4959
tat	-4960
tem	-4961
tia	-4962
uku	-4963
unu	-4964
ure	-4965
wil	-4966
yek	-4967
yiy	-4968
yoo	-4969
yot	-4970
yul	-4971
yum	-4972
ökI	-4973
öre	-4974
öti	-4975
ötö	-4976
üle	-4977
ŋga	-4978
ŋok	-4979
ŋun	-4980
ŋök	-4981
▁Aj	-4982
▁Ap	-4983
▁Bö	-4984
▁Iw	-4985
▁Mi	-4986
▁Ni	-4987
▁Nu	-4988
▁Ny	-4989
▁YI	-4990
▁aj	-4991
▁mI	-4992
▁nr	-4993
▁nt	-4994
▁sI	-4995
▁sw	-4996
▁un	-4997
Bole	-4998
Buru	-4999
Diko	-5000
Itan	-5001
Iuja	-5002
Iötu	-5003
Iŋit	-5004
Kepa	-5005
adaŋ	-5006
akar	-5007
alak	-5008
alya	-5009
amon	-5010
anyu	-5011
aras	-5012
arki	-5013
aron	-5014
arya	-5015
aset	-5016
atoa	-5017
aŋan	-5018
baba	-5019
basi	-5020
bele	-5021
bilu	-5022
boja	-5023
boŋe	-5024
buse	-5025
buya	-5026
dIrI	-5027
dake	-5028
dama	-5029
dija	-5030
dinI	-5031
dine	-5032
doju	-5033
duri	-5034
durö	-5035
dwan	-5036
düsi	-5037
enak	-5038
enet	-5039
eoli	-5040
epok	-5041
ereo	-5042
esek	-5043
esop	-5044
gabo	-5045
gele	-5046
gelo	-5047
gora	-5048
guri	-5049
gwok	-5050
iato	-5051
idya	-5052
ijin	-5053
ilil	-5054
ilun	-5055
inon	-5056
inuk	-5057
itio	-5058
itul	-5059
iŋet	-5060
jama	-5061
jiya	-5062
kalu	-5063
keja	-5064
kele	-5065
kilo	-5066
kima	-5067
kode	-5068
koyo	-5069
kujö	-5070
kune	-5071
kwet	-5072
lara	-5073
leki	-5074
liki	-5075
logo	-5076
luon	-5077
mega	-5078
motr	-5079
niak	-5080
noka	-5081
onia	-5082
orak	-5083
orja	-5084
orji	-5085
orwe	-5086
otyo	-5087
pidi	-5088
pora	-5089
posa	-5090
pujö	-5091
pöri	-5092
pötu	-5093
reni	-5094
roji	-5095
saba	-5096
ujin	-5097
ujum	-5098
ukan	-5099
sai	-5100
ŋko	-5101
▁Iö	-5102
bulu	-5103
buŋö	-5104
gwaŋ	-5105
irak	-5106
joto	-5107
laka	-5108
mane	-5109
okan	-5110
peta	-5111
raji	-5112
rali	-5113
ukin	-5114
ukun	-5115
ulet	-5116
ulua	-5117
ulun	-5118
ulöŋ	-5119
unia	-5120
unyö	-5121
urye	-5122
waki	-5123
wari	-5124
wule	-5125
yaji	-5126
yaŋi	-5127
yeet	-5128
yeok	-5129
yesu	-5130
yija	-5131
yikö	-5132
yisi	-5133
yone	-5134
yuda	-5135
yuje	-5136
yuki	-5137
yulö	-5138
yöni	-5139
yösi	-5140
yöyu	-5141
ökök	-5142
önye	-5143
öriŋ	-5144
ötyö	-5145
ŋaju	-5146
ŋaki	-5147
ŋote	-5148
▁Der	-5149
▁Ela	-5150
▁Eun	-5151
▁Iaŋ	-5152
▁Iom	-5153
▁Ion	-5154
▁Iyö	-5155
▁Ket	-5156
▁Kio	-5157
▁Kit	-5158
▁Kiŋ	-5159
▁Kom	-5160
▁Kuk	-5161
▁Laŋ	-5162
▁Let	-5163
▁Lew	-5164
▁Lil	-5165
▁Luk	-5166
▁Mon	-5167
▁Nam	-5168
▁Nao	-5169
▁Nea	-5170
▁Pat	-5171
▁Pes	-5172
▁Pit	-5173
▁Rep	-5174
▁Rub	-5175
▁Suk	-5176
▁Tat	-5177
▁Toj	-5178
▁Tul	-5179
▁Tur	-5180
▁Yai	-5181
▁Yaŋ	-5182
▁Yeŋ	-5183
▁Yit	-5184
▁Yuk	-5185
▁any	-5186
▁bbö	-5187
▁bor	-5188
▁buI	-5189
▁böŋ	-5190
▁ddu	-5191
▁der	-5192
▁dir	-5193
▁diŋ	-5194
▁dok	-5195
▁ggö	-5196
▁gin	-5197
▁gun	-5198
▁göm	-5199
ibe	-5200
pio	-5201
▁Bi	-5202
Raba	-5203
beyi	-5204
gore	-5205
loka	-5206
piet	-5207
▁Daŋ	-5208
▁Duk	-5209
▁dwö	-5210
▁iri	-5211
▁jiö	-5212
▁kaj	-5213
▁kay	-5214
▁ket	-5215
▁koj	-5216
▁kot	-5217
▁leu	-5218
▁leŋ	-5219
▁lti	-5220
▁lön	-5221
▁med	-5222
▁mot	-5223
▁mus	-5224
▁möt	-5225
▁nab	-5226
▁naŋ	-5227
▁ndu	-5228
▁nek	-5229
▁non	-5230
▁nwa	-5231
▁rat	-5232
▁ria	-5233
▁rim	-5234
▁rio	-5235
▁rip	-5236
▁rok	-5237
▁run	-5238
▁sal	-5239
▁sur	-5240
▁tel	-5241
▁tij	-5242
▁tiŋ	-5243
▁tuw	-5244
▁tök	-5245
▁tön	-5246
▁win	-5247
▁wiŋ	-5248
▁yoŋ	-5249
▁yum	-5250
▁yut	-5251
▁ŋet	-5252
▁ŋir	-5253
▁ŋöŋ	-5254
Boŋgo	-5255
Bulit	-5256
Busan	-5257
Doggi	-5258
Dutet	-5259
alaji	-5260
anisa	-5261
araga	-5262
araki	-5263
arani	-5264
arara	-5265
arasa	-5266
bajin	-5267
bakan	-5268
biala	-5269
boIot	-5270
bolun	-5271
boŋgo	-5272
bubut	-5273
bunit	-5274
burjö	-5275
dapan	-5276
dekti	-5277
demba	-5278
dento	-5279
dinya	-5280
diona	-5281
diyat	-5282
doddi	-5283
doŋan	-5284
dumak	-5285
duŋwe	-5286
ebeka	-5287
erede	-5288
eruba	-5289
esere	-5290
etese	-5291
gelwe	-5292
ggöjo	-5293
iaddu	-5294
ikila	-5295
inyan	-5296
jambi	-5297
jumuk	-5298
jöŋgu	-5299
lau	-5300
goga	-5301
jumu	-5302
kipo	-5303
loŋe	-5304
ryok	-5305
waka	-5306
yala	-5307
yila	-5308
önir	-5309
▁liö	-5310
gömök	-5311
irisi	-5312
korji	-5313
kuIya	-5314
kundo	-5315
kuria	-5316
kweja	-5317
kwene	-5318
kweri	-5319
laddi	-5320
lemai	-5321
lyöŋi	-5322
lökin	-5323
lötyo	-5324
metak	-5325
mitio	-5326
moret	-5327
murek	-5328
mökin	-5329
nauma	-5330
nyani	-5331
pagan	-5332
paina	-5333
paran	-5334
puggö	-5335
pupur	-5336
riene	-5337
rmoge	-5338
saddu	-5339
sakin	-5340
sanya	-5341
sidia	-5342
silaŋ	-5343
sökin	-5344
teton	-5345
ubulo	-5346
uköji	-5347
uköki	-5348
ulyöŋ	-5349
uresi	-5350
usara	-5351
watwö	-5352
wekwe	-5353
wilin	-5354
yaddi	-5355
yaddu	-5356
yelye	-5357
yendu	-5358
yolok	-5359
yotet	-5360
önisi	-5361
ŋöddi	-5362
ŋöine	-5363
▁Amor	-5364
▁Aran	-5365
▁Arna	-5366
▁Arte	-5367
▁Bala	-5368
▁Budu	-5369
▁Dani	-5370
▁Ioki	-5371
▁Iomu	-5372
▁Iupe	-5373
▁Iupö	-5374
▁Kabu	-5375
▁Kana	-5376
▁Kasa	-5377
▁Katu	-5378
▁Kaye	-5379
▁Kele	-5380
▁Kini	-5381
▁Kolo	-5382
▁Kuja	-5383
▁Kulu	-5384
▁Kulö	-5385
▁Köli	-5386
▁Loju	-5387
▁Lutu	-5388
▁Mara	-5389
▁Masi	-5390
▁Mina	-5391
▁Mukö	-5392
▁Mulö	-5393
▁Mura	-5394
▁Neko	-5395
▁Nyea	-5396
▁Paii	-5397
▁Peto	-5398
▁Pilo	-5399
mok	-5400
ujö	-5401
▁dö	-5402
Bili	-5403
ater	-5404
burö	-5405
ŋwök	-5406
▁Era	-5407
▁Put	-5408
▁uda	-5409
Masia	-5410
bukuI	-5411
burju	-5412
burwö	-5413
digga	-5414
dokon	-5415
nagon	-5416
yatti	-5417
yaŋan	-5418
yogga	-5419
ŋanit	-5420
▁AntI	-5421
▁Beli	-5422
▁Iera	-5423
▁Kale	-5424
▁Kayu	-5425
▁Köju	-5426
▁Pine	-5427
▁Rere	-5428
▁Riri	-5429
▁Rupo	-5430
▁Sali	-5431
▁Sare	-5432
▁Seme	-5433
▁Sima	-5434
▁Ture	-5435
▁Yara	-5436
▁Yeje	-5437
▁Yere	-5438
▁Yiŋe	-5439
▁Yulu	-5440
▁ajoŋ	-5441
▁baru	-5442
▁bule	-5443
▁dani	-5444
▁dede	-5445
▁denu	-5446
▁dera	-5447
▁doko	-5448
▁gaju	-5449
▁gale	-5450
▁gogo	-5451
▁gure	-5452
▁gwat	-5453
▁gwiŋ	-5454
▁jaat	-5455
▁jaki	-5456
▁jeka	-5457
▁juki	-5458
▁kadu	-5459
▁kajo	-5460
▁kalö	-5461
▁kari	-5462
▁kawe	-5463
▁keet	-5464
▁kesi	-5465
▁kiat	-5466
▁kija	-5467
▁kiji	-5468
▁kini	-5469
▁kiri	-5470
▁kito	-5471
▁kiun	-5472
▁koka	-5473
▁kosi	-5474
▁kujö	-5475
▁köbi	-5476
▁ködu	-5477
▁köiu	-5478
▁köjI	-5479
▁kölö	-5480
▁kötu	-5481
▁lepe	-5482
▁leya	-5483
▁lido	-5484
▁lipa	-5485
▁liŋa	-5486
▁loju	-5487
▁lutu	-5488
▁luwi	-5489
▁luŋa	-5490
▁luŋö	-5491
▁lyal	-5492
▁löri	-5493
▁miru	-5494
▁moji	-5495
▁muka	-5496
▁nawo	-5497
▁niya	-5498
▁noke	-5499
jIn	-5500
dirö	-5501
gamo	-5502
liet	-5503
pimo	-5504
ŋilu	-5505
▁Ilu	-5506
▁Riu	-5507
▁Ruk	-5508
dokak	-5509
dumwe	-5510
durwe	-5511
penak	-5512
penat	-5513
pukök	-5514
tumbe	-5515
▁Gada	-5516
▁Iopi	-5517
▁Koŋe	-5518
▁Rine	-5519
▁Samo	-5520
▁bury	-5521
▁dyoo	-5522
▁koli	-5523
▁nunu	-5524
▁nyak	-5525
▁nyiŋ	-5526
▁nyop	-5527
▁pata	-5528
▁paya	-5529
▁peIe	-5530
▁pidi	-5531
▁puja	-5532
▁punu	-5533
▁reji	-5534
▁reto	-5535
▁reun	-5536
▁reya	-5537
▁rine	-5538
▁riyu	-5539
▁ruta	-5540
▁rwöt	-5541
▁ryei	-5542
▁rölö	-5543
▁sape	-5544
▁seja	-5545
▁sesi	-5546
▁soju	-5547
▁sony	-5548
▁soŋi	-5549
▁taŋa	-5550
▁teŋo	-5551
▁tini	-5552
▁tobo	-5553
▁tome	-5554
▁tosi	-5555
▁tuke	-5556
▁tukö	-5557
▁tulu	-5558
▁tuwö	-5559
▁wela	-5560
▁wewe	-5561
▁wile	-5562
▁wilo	-5563
▁wini	-5564
▁wiri	-5565
▁wujI	-5566
▁wure	-5567
▁wuun	-5568
▁wuuu	-5569
▁wuŋu	-5570
▁yaki	-5571
▁yata	-5572
▁yaŋg	-5573
▁yikö	-5574
▁yini	-5575
▁yisi	-5576
▁yule	-5577
▁yulu	-5578
▁yurö	-5579
▁ŋara	-5580
▁ŋaun	-5581
▁ŋiki	-5582
▁ŋire	-5583
▁ŋotɛ	-5584
▁ŋule	-5585
adaŋak	-5586
alaggi	-5587
anyaki	-5588
arakin	-5589
bitöki	-5590
bitöni	-5591
boroki	-5592
buŋösi	-5593
danaet	-5594
dekari	-5595
diaddu	-5596
diddya	-5597
diddye	-5598
dindyö	-5599
boka	-5600
moŋa	-5601
▁dud	-5602
▁lam	-5603
▁ŋgö	-5604
Balaŋ	-5605
Duŋet	-5606
epata	-5607
kooji	-5608
manti	-5609
uluŋi	-5610
▁AsIa	-5611
▁Aser	-5612
▁Gidi	-5613
▁Kidi	-5614
▁Lepe	-5615
▁Pila	-5616
▁Rope	-5617
▁Rusu	-5618
▁Sape	-5619
▁dini	-5620
▁iŋka	-5621
▁jijö	-5622
▁koŋa	-5623
▁pikö	-5624
▁riŋe	-5625
▁soji	-5626
▁tope	-5627
▁woro	-5628
▁yolo	-5629
arandu	-5630
diniki	-5631
dokani	-5632
dokari	-5633
doroju	-5634
duköki	-5635
dumani	-5636
duruki	-5637
duröki	-5638
duŋöji	-5639
duŋöni	-5640
duŋöri	-5641
dökine	-5642
döyösi	-5643
enejin	-5644
guriet	-5645
gwörji	-5646
ikatat	-5647
iliket	-5648
iliŋgi	-5649
isajin	-5650
itanit	-5651
itunia	-5652
kogwon	-5653
korite	-5654
lonyon	-5655
oranit	-5656
purwan	-5657
ralido	-5658
rekesi	-5659
rikuni	-5660
sundya	-5661
tobulo	-5662
ukanit	-5663
uluŋgö	-5664
ulökin	-5665
urunit	-5666
uryeje	-5667
wökine	-5668
yaraki	-5669
yaŋesi	-5670
yoddya	-5671
yundyö	-5672
yunyum	-5673
yurari	-5674
yuresi	-5675
yökiye	-5676
yömöki	-5677
örökin	-5678
▁Adara	-5679
▁Agabo	-5680
▁Ainon	-5681
▁Akele	-5682
▁Ampul	-5683
▁Anyen	-5684
▁Apele	-5685
▁Balak	-5686
▁Barak	-5687
▁Dalam	-5688
▁Derbe	-5689
▁Enoka	-5690
▁Epiku	-5691
▁Gurut	-5692
▁IiIik	-5693
▁Ioron	-5694
▁Karya	-5695
▁Kauda	-5696
▁Kijit	-5697
▁Koloŋ	-5698
▁Krisi	-5699
Dioŋ	-5700
ambi	-5701
okIa	-5702
▁woo	-5703
Beron	-5704
Maria	-5705
retyo	-5706
▁Bula	-5707
▁Tojo	-5708
▁Toto	-5709
▁kwön	-5710
▁wome	-5711
▁yumi	-5712
daaddu	-5713
ulukia	-5714
▁Dakap	-5715
▁Gulöm	-5716
▁Krist	-5717
▁Kugge	-5718
▁Kupir	-5719
▁Kuren	-5720
▁Lasea	-5721
▁Lwöki	-5722
▁Mesop	-5723
▁Molok	-5724
▁Mulök	-5725
▁Musia	-5726
▁Naomi	-5727
▁Nereo	-5728
▁Niger	-5729
▁Numpa	-5730
▁Nyesu	-5731
▁Rorwe	-5732
▁Salim	-5733
▁Satoa	-5734
▁Sondi	-5735
▁Sopat	-5736
▁Sosip	-5737
▁Surak	-5738
▁Surti	-5739
▁Temet	-5740
▁Teuda	-5741
▁Tokor	-5742
▁Torji	-5743
▁Yidin	-5744
▁Yoanɛ	-5745
▁Yulia	-5746
▁Yupet	-5747
▁Yuŋwe	-5748
▁batid	-5749
▁denwe	-5750
▁dodok	-5751
▁dodot	-5752
▁doggu	-5753
▁donia	-5754
▁gelya	-5755
▁goggi	-5756
▁goggu	-5757
▁golon	-5758
▁goman	-5759
▁gweyu	-5760
▁gwiki	-5761
▁gwoke	-5762
▁gwutö	-5763
▁jiggö	-5764
▁jöggi	-5765
▁kadum	-5766
▁kalyö	-5767
▁kapit	-5768
▁karan	-5769
▁katet	-5770
▁katuk	-5771
▁keesI	-5772
▁kekep	-5773
▁kgwon	-5774
▁kidia	-5775
▁kiser	-5776
▁konyo	-5777
▁kulan	-5778
▁kulok	-5779
▁kulon	-5780
▁kumin	-5781
▁kunIe	-5782
▁kurit	-5783
▁kurök	-5784
▁kuörö	-5785
▁kökin	-5786
▁kötyo	-5787
▁laddu	-5788
▁laesi	-5789
▁laggi	-5790
▁leyot	-5791
▁lilia	-5792
▁liŋgo	-5793
▁loggi	-5794
▁lopir	-5795
▁loŋem	-5796
▁loŋga	-5797
▁lugge	-5798
▁lupet	-5799
sukö	-5800
delak	-5801
gwuŋö	-5802
jöndu	-5803
▁Dini	-5804
▁Kido	-5805
▁Kudu	-5806
▁Möji	-5807
▁Tuka	-5808
▁pelo	-5809
▁pune	-5810
▁wilö	-5811
▁ŋiIo	-5812
buruji	-5813
delesi	-5814
dokeju	-5815
otamia	-5816
piatyo	-5817
ösurök	-5818
▁Barna	-5819
▁Epain	-5820
▁Gwulu	-5821
▁Kijik	-5822
▁Kusik	-5823
▁Liabe	-5824
▁Lwaka	-5825
▁Perat	-5826
▁Toyiŋ	-5827
▁Töili	-5828
▁berju	-5829
▁köIök	-5830
▁loŋgi	-5831
▁lulup	-5832
▁lurwö	-5833
▁lwöŋi	-5834
▁lölöm	-5835
▁lömbi	-5836
▁lönit	-5837
▁mijun	-5838
▁mirwe	-5839
▁moara	-5840
▁modoŋ	-5841
▁mojoŋ	-5842
▁monoa	-5843
▁morji	-5844
▁muguu	-5845
▁mulua	-5846
▁munit	-5847
▁muree	-5848
▁murwö	-5849
▁möggi	-5850
▁mömör	-5851
▁mörik	-5852
▁nabat	-5853
▁nakan	-5854
▁nakin	-5855
▁nakwɛ	-5856
▁nanye	-5857
▁naŋgi	-5858
▁naŋon	-5859
▁nityo	-5860
▁nuddu	-5861
▁nugge	-5862
▁nuket	-5863
▁nyeit	-5864
▁nyeja	-5865
▁nyope	-5866
▁nyore	-5867
▁nyöki	-5868
▁nyökö	-5869
▁nyöni	-5870
▁ogwon	-5871
▁peron	-5872
▁peŋat	-5873
▁peŋga	-5874
▁piesi	-5875
▁pigge	-5876
▁pundi	-5877
▁purje	-5878
▁rabbi	-5879
▁rabbu	-5880
▁raddi	-5881
▁raddu	-5882
▁rakin	-5883
▁rembu	-5884
▁riggö	-5885
▁rijik	-5886
▁rikun	-5887
▁rikwe	-5888
▁roggi	-5889
▁rombi	-5890
▁röddi	-5891
▁sauma	-5892
▁seddi	-5893
▁senya	-5894
▁setet	-5895
▁sobbi	-5896
▁sooro	-5897
▁söpuk	-5898
▁taIiŋ	-5899
ŋwɛ	-5900
Depe	-5901
aida	-5902
mone	-5903
dayat	-5904
dibbö	-5905
gwöre	-5906
▁Apio	-5907
▁Gelu	-5908
▁Mika	-5909
▁Rama	-5910
▁duku	-5911
▁jiyö	-5912
▁nökö	-5913
▁ŋaŋa	-5914
Yulöki	-5915
bitötu	-5916
esaida	-5917
iyunit	-5918
koyoke	-5919
setene	-5920
▁Adada	-5921
▁Loisi	-5922
▁Lusia	-5923
▁Mitul	-5924
▁Rudwe	-5925
▁Yubbö	-5926
▁daket	-5927
▁dukan	-5928
▁gorji	-5929
▁kökon	-5930
▁lömit	-5931
▁suali	-5932
▁taŋgi	-5933
▁tigga	-5934
▁tigge	-5935
▁titik	-5936
▁togir	-5937
▁tokuö	-5938
▁toküt	-5939
▁torem	-5940
▁tosun	-5941
▁totem	-5942
▁toŋut	-5943
▁tukar	-5944
▁tuman	-5945
▁tumbe	-5946
▁tumön	-5947
▁tusör	-5948
▁töggi	-5949
▁törön	-5950
▁walan	-5951
▁wawaŋ	-5952
▁waŋgi	-5953
▁wirja	-5954
▁wuwur	-5955
▁wökun	-5956
▁wörji	-5957
▁yaddi	-5958
▁yaggi	-5959
▁yanya	-5960
▁yeesi	-5961
▁yembi	-5962
▁yeyek	-5963
▁yokan	-5964
▁yubbi	-5965
▁yuggö	-5966
▁yukit	-5967
▁yukun	-5968
▁yulöŋ	-5969
▁yuörö	-5970
▁ŋerji	-5971
▁ŋogwo	-5972
▁ŋoŋet	-5973
▁ŋöine	-5974
Barnaba	-5975
Siloama	-5976
arasake	-5977
aroniko	-5978
bakaara	-5979
bakaddu	-5980
barindu	-5981
beleŋok	-5982
biyaddu	-5983
bukökin	-5984
bulusin	-5985
bunyöki	-5986
böriköt	-5987
daundya	-5988
dayatak	-5989
delapia	-5990
dinikin	-5991
disityo	-5992
dokanit	-5993
dokoddu	-5994
dolanit	-5995
dukökin	-5996
dukönit	-5997
durikin	-5998
duröddi	-5999
▁rno	-6000
bilia	-6001
eseda	-6002
inasa	-6003
rilön	-6004
▁Döru	-6005
▁Kone	-6006
▁Momo	-6007
▁Puro	-6008
▁Riyu	-6009
▁Yöle	-6010
▁akim	-6011
▁gota	-6012
ludukö	-6013
ujumbi	-6014
▁Iuŋgu	-6015
▁Katuk	-6016
▁Mugge	-6017
▁Persi	-6018
▁Raele	-6019
▁Twöju	-6020
▁Yodom	-6021
▁baŋga	-6022
▁jölwe	-6023
▁lakwe	-6024
▁momon	-6025
▁tijoŋ	-6026
▁toruö	-6027
▁yakun	-6028
▁ŋorji	-6029
delekon	-6030
duröddu	-6031
jujumbu	-6032
jurakan	-6033
kimakan	-6034
lakaddu	-6035
lekidon	-6036
moronit	-6037
pupurak	-6038
rokokan	-6039
ropanit	-6040
rorikin	-6041
tolokok	-6042
tomoret	-6043
uluöddu	-6044
wariara	-6045
yaladdi	-6046
yukönit	-6047
yurakin	-6048
yutunit	-6049
yölöddi	-6050
yölöddu	-6051
▁Antipa	-6052
▁Artema	-6053
▁Berede	-6054
▁Damari	-6055
▁Ermoge	-6056
▁Erodia	-6057
▁Eubulo	-6058
▁Getese	-6059
▁IkuIya	-6060
▁Ionyit	-6061
▁Iyaŋan	-6062
▁Kamara	-6063
▁Kanisa	-6064
▁Konaki	-6065
▁Konesi	-6066
▁Kopora	-6067
▁Kujönö	-6068
▁Kweyet	-6069
▁Kömiru	-6070
▁Lupöri	-6071
▁Luruki	-6072
▁Magoga	-6073
▁Malaik	-6074
▁Möröni	-6075
▁Namana	-6076
▁Nyoŋgi	-6077
▁Partia	-6078
▁Pileto	-6079
▁Pinasa	-6080
▁Pitöki	-6081
▁Pontio	-6082
▁Ririŋe	-6083
▁Rubena	-6084
▁Samotr	-6085
▁Saraki	-6086
▁Sekewa	-6087
▁Sekilo	-6088
▁Sukara	-6089
▁Susana	-6090
▁Tamara	-6091
▁Tatune	-6092
▁Tawero	-6093
▁Temaki	-6094
▁Tukuki	-6095
▁Turano	-6096
▁Yepeta	-6097
▁Yukuki	-6098
▁ajoŋgi	-6099
Dumu	-6100
dati	-6101
Dogga	-6102
jweni	-6103
patri	-6104
▁Goga	-6105
▁Golo	-6106
▁Lote	-6107
▁maIa	-6108
▁moŋa	-6109
renyak	-6110
▁Gugwö	-6111
▁Koŋon	-6112
▁Yubbe	-6113
▁keren	-6114
▁mijan	-6115
▁rupit	-6116
▁sosor	-6117
bekoddi	-6118
ulyöŋök	-6119
wölöŋök	-6120
▁Abadon	-6121
▁Gadara	-6122
▁Gelaki	-6123
▁Manaen	-6124
▁Ropaki	-6125
▁Roriot	-6126
▁Salami	-6127
▁Tertio	-6128
▁Yeyeet	-6129
▁Yusito	-6130
▁baulan	-6131
▁bubulo	-6132
▁bulaki	-6133
▁bulari	-6134
▁bulöri	-6135
▁böŋöri	-6136
▁böŋörö	-6137
▁dadara	-6138
▁dakari	-6139
▁dakesi	-6140
▁darani	-6141
▁dotori	-6142
▁dukaji	-6143
▁dwöIön	-6144
▁gelaji	-6145
▁giruki	-6146
▁gorwat	-6147
▁gwaddu	-6148
▁gwagwa	-6149
▁gwiörö	-6150
▁gwoIoŋ	-6151
▁gwoŋko	-6152
▁gwutet	-6153
▁gwöŋtu	-6154
▁jamaji	-6155
▁jamani	-6156
▁jiköji	-6157
▁jikörö	-6158
▁jwejwe	-6159
▁kakjin	-6160
▁kalupe	-6161
▁kamilo	-6162
▁kanyen	-6163
▁kasulu	-6164
▁katoŋi	-6165
▁kawuyu	-6166
▁kekere	-6167
▁kelara	-6168
▁kenaki	-6169
▁kenesi	-6170
▁keresi	-6171
▁keruba	-6172
▁kidiya	-6173
▁kiniki	-6174
▁kitaki	-6175
▁kitaun	-6176
▁kiyene	-6177
▁kobaba	-6178
▁konari	-6179
▁koraki	-6180
▁koresi	-6181
▁kukuna	-6182
▁kukuta	-6183
▁kurumi	-6184
▁kuruwe	-6185
▁kurörö	-6186
▁kutari	-6187
▁kwatwö	-6188
▁kökörö	-6189
▁kölipö	-6190
▁kölöni	-6191
▁köputö	-6192
▁körisi	-6193
▁labara	-6194
▁laikin	-6195
▁lasesi	-6196
▁lawesi	-6197
▁leleju	-6198
▁likiki	-6199
Rabi	-6200
Ruta	-6201
önIt	-6202
▁YES	-6203
▁röp	-6204
Iugge	-6205
lumpa	-6206
yilet	-6207
▁Regi	-6208
▁diIi	-6209
▁lelɛ	-6210
▁nasɛ	-6211
Kogwon	-6212
Yalaki	-6213
ayokok	-6214
demeja	-6215
lyekin	-6216
▁Madai	-6217
▁Regio	-6218
▁Toküt	-6219
▁Tumim	-6220
▁Yulio	-6221
▁emera	-6222
▁gömbu	-6223
▁jojon	-6224
▁losim	-6225
▁natun	-6226
▁naŋem	-6227
▁ryaka	-6228
▁wanya	-6229
dakakin	-6230
yiyikin	-6231
▁Dendya	-6232
▁Kenesi	-6233
▁Lilije	-6234
▁Sapira	-6235
▁Toyiyi	-6236
▁könisI	-6237
▁liline	-6238
▁liliun	-6239
▁lokole	-6240
▁loteko	-6241
▁loŋaki	-6242
▁lundya	-6243
▁luruöt	-6244
▁lusökö	-6245
▁luŋasi	-6246
▁luŋuki	-6247
▁luŋuri	-6248
▁lwökwe	-6249
▁lwöŋgi	-6250
▁lyöŋgu	-6251
▁magora	-6252
▁makilu	-6253
▁makine	-6254
▁makulo	-6255
▁makune	-6256
▁mamaIa	-6257
▁mamago	-6258
▁manesi	-6259
▁metaji	-6260
▁metari	-6261
▁mijörö	-6262
▁miresi	-6263
▁mokaji	-6264
▁mokani	-6265
▁momora	-6266
▁momoŋa	-6267
▁monyet	-6268
▁moresi	-6269
▁mukine	-6270
▁mukune	-6271
▁muköki	-6272
▁munyun	-6273
▁musöni	-6274
▁mömöji	-6275
▁möriet	-6276
▁mörikö	-6277
▁möröri	-6278
▁nagwon	-6279
▁nanaji	-6280
▁nanaju	-6281
▁nanane	-6282
▁naporo	-6283
▁nukani	-6284
▁nukari	-6285
▁nyoŋga	-6286
▁nyoŋgi	-6287
▁nyumbe	-6288
▁nyumbö	-6289
▁pasaka	-6290
▁pepena	-6291
▁pipilu	-6292
▁popori	-6293
▁pupuri	-6294
▁regore	-6295
▁rikija	-6296
▁rikije	-6297
▁ririkö	-6298
▁riöddu	-6299
jölök	-6300
▁Ajor	-6301
▁Beor	-6302
▁Elam	-6303
▁Emau	-6304
▁Lino	-6305
▁Löti	-6306
▁miŋe	-6307
▁müle	-6308
arkiso	-6309
biluji	-6310
bulötö	-6311
doŋoki	-6312
kwetan	-6313
onusio	-6314
▁Ajoto	-6315
▁Iwönö	-6316
▁Lukia	-6317
▁Miret	-6318
▁Pukun	-6319
▁Repan	-6320
▁Riŋet	-6321
▁Salem	-6322
▁Toyek	-6323
▁Yairo	-6324
▁Yaŋgo	-6325
▁Yenet	-6326
▁Yosua	-6327
▁Yunia	-6328
▁bilil	-6329
▁böriŋ	-6330
▁dIŋit	-6331
▁kisuk	-6332
▁kuuku	-6333
▁nokan	-6334
▁ntesu	-6335
▁tarip	-6336
▁yorja	-6337
▁ŋyesu	-6338
deŋgele	-6339
esekene	-6340
wulekak	-6341
▁Eunike	-6342
▁Iömöni	-6343
▁Ketura	-6344
▁Kitani	-6345
▁Liline	-6346
▁Patara	-6347
▁Peseto	-6348
▁Pugelo	-6349
▁Toliki	-6350
▁Yekalu	-6351
▁ködinI	-6352
▁lonyiy	-6353
▁najama	-6354
▁riŋaki	-6355
▁romara	-6356
▁rondya	-6357
▁ropani	-6358
▁ropari	-6359
▁roropa	-6360
▁rukesi	-6361
▁rundya	-6362
▁ruruka	-6363
▁ryekin	-6364
▁ryendu	-6365
▁ryoket	-6366
▁saalan	-6367
▁sabata	-6368
▁sakani	-6369
▁sakari	-6370
▁salani	-6371
▁sapira	-6372
▁sardio	-6373
▁satani	-6374
▁sekune	-6375
▁sosore	-6376
▁suIuja	-6377
▁sulune	-6378
▁susuka	-6379
▁swalya	-6380
▁tagwok	-6381
▁tataki	-6382
▁temaki	-6383
▁temeki	-6384
▁temesi	-6385
▁tetela	-6386
▁titike	-6387
▁titikö	-6388
▁titiyu	-6389
▁titoni	-6390
▁tiyuni	-6391
▁tobebe	-6392
▁todini	-6393
▁tojowe	-6394
▁tojupu	-6395
▁tokore	-6396
▁tokori	-6397
▁tomoke	-6398
▁tomusö	-6399
Dupiet	-6400
▁Poibe	-6401
buggöjo	-6402
bukuIuŋ	-6403
paganon	-6404
yiladdu	-6405
▁Arkipo	-6406
▁Dukaki	-6407
▁Kinido	-6408
▁Könisi	-6409
▁Parasa	-6410
▁Rebeka	-6411
▁Yitöni	-6412
▁birisi	-6413
▁borösi	-6414
▁buyala	-6415
▁gindya	-6416
▁kotyaŋ	-6417
▁loloka	-6418
▁mötwöt	-6419
▁nunutu	-6420
▁nwaiik	-6421
▁tiŋiki	-6422
▁topiri	-6423
▁topuök	-6424
▁toreki	-6425
▁toriŋö	-6426
▁torujö	-6427
▁torune	-6428
▁toryok	-6429
▁totobu	-6430
▁towora	-6431
▁towune	-6432
▁toyeme	-6433
▁toyuje	-6434
▁toŋiji	-6435
▁toŋoŋa	-6436
▁tukayu	-6437
▁tukujö	-6438
▁tukökI	-6439
▁tulene	-6440
▁tumane	-6441
▁tumöni	-6442
▁tupesi	-6443
▁tuturö	-6444
▁tuŋaun	-6445
▁tuŋuti	-6446
▁tuŋöki	-6447
▁twöyit	-6448
▁walaji	-6449
▁waraki	-6450
▁waŋesi	-6451
▁wereyo	-6452
▁winikö	-6453
▁wiwije	-6454
▁wiwiŋö	-6455
▁wowora	-6456
▁wunyun	-6457
▁wuresi	-6458
▁wusani	-6459
▁wusara	-6460
▁wuwuju	-6461
▁wuwurö	-6462
▁wuyisi	-6463
▁yakulo	-6464
▁yekaki	-6465
▁yitöri	-6466
▁yiyikö	-6467
▁yiŋari	-6468
▁yokujö	-6469
▁yoyope	-6470
▁yoŋaki	-6471
▁yuddye	-6472
▁yukaki	-6473
▁yukuki	-6474
▁yunaki	-6475
▁yundye	-6476
▁yupesi	-6477
▁yuyuke	-6478
▁yuöggu	-6479
▁ŋaŋara	-6480
▁ŋeddya	-6481
▁ŋerani	-6482
▁ŋiŋira	-6483
▁ŋiŋisa	-6484
▁ŋoŋoja	-6485
▁ŋundya	-6486
Burutikö	-6487
bilundye	-6488
bitökine	-6489
biyundye	-6490
burutikö	-6491
dakindye	-6492
danajine	-6493
dukindye	-6494
dukundyö	-6495
durundye	-6496
duŋundyö	-6497
eserejin	-6498
irikulan	-6499
yilundya	-6500
▁Abarama	-6501
▁Apoluon	-6502
▁Barakia	-6503
▁Barsaba	-6504
▁Beliala	-6505
▁Bibilia	-6506
▁Bitunia	-6507
▁Daniele	-6508
▁Diŋitan	-6509
▁Eliyuda	-6510
▁Epikuro	-6511
▁Erasito	-6512
▁Etiopia	-6513
▁Gidiona	-6514
▁Gwoloŋe	-6515
▁Iaŋaddu	-6516
▁Iepeŋat	-6517
▁Iluriko	-6518
▁Iokoyok	-6519
▁Kadijik	-6520
▁Kajujum	-6521
▁Kaledea	-6522
▁Kandake	-6523
▁Kaŋarak	-6524
▁Keleopa	-6525
▁Kiŋajin	-6526
▁Kolosai	-6527
▁Komonye	-6528
▁Krisipo	-6529
▁Kristia	-6530
▁Kweyesi	-6531
▁Köbuŋöt	-6532
▁Köpuröt	-6533
▁Laŋaddi	-6534
▁Lepenat	-6535
▁Letajin	-6536
▁Lewijin	-6537
▁Lewityo	-6538
▁Loriŋit	-6539
▁Lurutat	-6540
▁Luyökie	-6541
▁Löpugge	-6542
▁Magadan	-6543
▁Midijik	-6544
▁Mikaele	-6545
▁Mugunya	-6546
▁Narkiso	-6547
▁Neapoli	-6548
▁Nikolau	-6549
▁Pergamo	-6550
▁Pisidia	-6551
▁Pudento	-6552
▁Puteoli	-6553
▁Sekundo	-6554
▁Tetendi	-6555
▁Tetenet	-6556
▁Toberon	-6557
▁Togeleŋ	-6558
▁Tojumbu	-6559
▁Tokoret	-6560
▁Tomurek	-6561
▁Tugwöre	-6562
▁Tukwaje	-6563
▁Tulwöki	-6564
▁Tuparan	-6565
▁Yeremia	-6566
▁Yisakar	-6567
▁babaŋun	-6568
▁banyaki	-6569
▁barandi	-6570
▁barandu	-6571
▁böŋöddu	-6572
▁diŋItan	-6573
▁dudulet	-6574
▁dudurwe	-6575
▁dukaddi	-6576
▁dukaddu	-6577
▁döundyö	-6578
▁gegelwe	-6579
▁gelakin	-6580
▁giraddi	-6581
▁gogolon	-6582
▁gwelaki	-6583
▁gweyani	-6584
▁gweyene	-6585
▁gwuddye	-6586
▁gwuddyö	-6587
▁gwuluŋi	-6588
▁gwulüsi	-6589
▁gwöröki	-6590
▁jajamun	-6591
▁jakakin	-6592
▁jiköddi	-6593
▁jiköddu	-6594
▁julökin	-6595
▁jupukin	-6596
▁jöjöŋgu	-6597
▁kadumak	-6598
▁kagömök	-6599
▁kaineki	-6600
▁kajulök	-6601
▁kajölök	-6602
▁kakaggi	-6603
▁kakaggu	-6604
▁kakepok	-6605
▁kalabbi	-6606
▁kalyati	-6607
▁kamaddu	-6608
▁karemok	-6609
▁karikin	-6610
▁karikök	-6611
▁katelak	-6612
▁kateŋok	-6613
▁katimun	-6614
▁katinuk	-6615
▁katökök	-6616
▁kawirak	-6617
▁kaworak	-6618
▁kayekak	-6619
▁kayolok	-6620
▁kayulök	-6621
▁kekebbi	-6622
▁kekebbu	-6623
▁kenakin	-6624
▁kijolon	-6625
▁kikoIin	-6626
▁kinamon	-6627
▁kinuddi	-6628
▁kiundya	-6629
▁kiundyö	-6630
▁kobubut	-6631
▁kojondi	-6632
▁kokondi	-6633
▁komoŋgi	-6634
▁komunyi	-6635
▁komönye	-6636
▁konidya	-6637
▁korakin	-6638
▁korukan	-6639
▁kuIyaet	-6640
▁kujönit	-6641
▁kujönök	-6642
▁kukurju	-6643
▁kulyanI	-6644
▁kulyanl	-6645
▁kuröddu	-6646
▁kwenine	-6647
▁köburjö	-6648
▁lalaija	-6649
▁lalaiya	-6650
▁lelejur	-6651
▁leusani	-6652
▁lodokon	-6653
▁lojambi	-6654
▁loteyon	-6655
▁loŋaddu	-6656
▁lulubbö	-6657
▁lulurön	-6658
▁luluŋgi	-6659
▁luluŋgu	-6660
▁luŋuddi	-6661
▁luŋutöt	-6662
▁lwökisi	-6663
▁lwököri	-6664
▁löpuket	-6665
▁löpukwe	-6666
▁malaika	-6667
▁memelan	-6668
▁metaddi	-6669
▁metaddu	-6670
▁meyaddi	-6671
▁milinte	-6672
▁mimijun	-6673
▁mokaddu	-6674
▁momogga	-6675
▁momokun	-6676
▁momores	-6677
▁muluani	-6678
▁mulukia	-6679
▁mumulun	-6680
▁murwöki	-6681
▁najweni	-6682
▁nakwölö	-6683
▁nanaara	-6684
▁napayaŋ	-6685
▁nyekulo	-6686
▁nyelaki	-6687
▁nyököji	-6688
▁nyömöji	-6689
▁pepenet	-6690
▁piköddu	-6691
▁pipigga	-6692
▁popokin	-6693
▁pupuret	-6694
▁rereara	-6695
▁reregga	-6696
▁rimatat	-6697
▁ripakin	-6698
▁ririŋet	-6699
▁ririŋwe	-6700
▁ririŋön	-6701
▁riundyö	-6702
▁riyajin	-6703
▁riŋgwaŋ	-6704
▁rorogga	-6705
▁rudweni	-6706
▁rugwuŋö	-6707
▁ruköddu	-6708
▁rurumön	-6709
▁sasarji	-6710
▁sonyoji	-6711
▁sonyoni	-6712
▁sonyoro	-6713
▁söpugge	-6714
▁tatukin	-6715
▁tawerji	-6716
▁temakin	-6717
▁teteŋgu	-6718
▁tijaran	-6719
▁tijurön	-6720
▁tikönyö	-6721
▁toberju	-6722
▁tobiala	-6723
▁tobudök	-6724
▁togolet	-6725
▁tojumbi	-6726
▁tokitai	-6727
▁tokuöji	-6728
▁toligga	-6729
▁tomorun	-6730
▁tomuswe	-6731
▁toreaji	-6732
▁toregga	-6733
▁torekin	-6734
▁torumbe	-6735
▁toteton	-6736
▁totoggu	-6737
▁totogwo	-6738
▁totomiö	-6739
▁totoran	-6740
▁totorem	-6741
▁totoyuö	-6742
▁totumbe	-6743
▁totumbö	-6744
▁toworji	-6745
▁toyuöji	-6746
▁toŋiyit	-6747
▁toŋoŋga	-6748
▁tugwöre	-6749
▁tugwörö	-6750
▁tujarji	-6751
▁tujarun	-6752
▁tukarji	-6753
▁tukaŋan	-6754
▁tuköddi	-6755
▁tulöddu	-6756
▁tunyöni	-6757
▁turyeni	-6758
▁turökin	-6759
▁tusörji	-6760
▁tuyaŋgi	-6761
▁tuyaŋgu	-6762
▁tuŋöine	-6763
▁tuŋökin	-6764
▁twöyösi	-6765
▁wakakin	-6766
▁wasaddu	-6767
▁wawaddi	-6768
▁wewelan	-6769
▁wiwilun	-6770
▁wowoani	-6771
▁wowoari	-6772
▁wukiesi	-6773
▁wuluddu	-6774
▁wuludun	-6775
▁wusaddu	-6776
▁wuwukin	-6777
▁wuyuddi	-6778
▁wökiesi	-6779
▁yakaddi	-6780
▁yakanyu	-6781
▁yatakin	-6782
▁yekwene	-6783
▁yeyegga	-6784
▁yeyendu	-6785
▁yeyeŋga	-6786
▁yeŋaddu	-6787
▁yitweni	-6788
▁yiŋaddi	-6789
▁yokooji	-6790
▁yukakin	-6791
▁yutakin	-6792
▁yuyukwe	-6793
▁yuyuŋwe	-6794
▁yuyuŋwɛ	-6795
▁yuŋweet	-6796
▁yöyöŋgi	-6797
▁ŋanyaji	-6798
▁ŋaŋakin	-6799
▁ŋilujur	-6800
bitörikin	-6801
busarikin	-6802
delarikin	-6803
erubabela	-6804
wekweniak	-6805
wilinyiki	-6806
▁AntIokIa	-6807
▁Beteseda	-6808
▁Denundye	-6809
▁Dinikine	-6810
▁Dionusio	-6811
▁Eberetyo	-6812
▁Epaineto	-6813
▁Ermogene	-6814
▁Erodiona	-6815
▁Gweyajin	-6816
▁Ierapoli	-6817
▁Iomunyak	-6818
▁Iyölyöŋi	-6819
▁Kalaudia	-6820
▁Kenkuria	-6821
▁Kijikiya	-6822
▁Kokorite	-6823
▁Kotumalu	-6824
▁Kukunaki	-6825
▁Kweyatti	-6826
▁Liliitan	-6827
▁Masiajin	-6828
▁Minasona	-6829
▁Mitulene	-6830
▁Nikopoli	-6831
▁Nyenagön	-6832
▁Pilologo	-6833
▁Salamone	-6834
▁Sarepata	-6835
▁Simasona	-6836
▁Sopatero	-6837
▁Sosetene	-6838
▁Sukindye	-6839
▁Surakusa	-6840
▁Tetenaki	-6841
▁Tirikuni	-6842
▁Todindye	-6843
▁Todindyö	-6844
▁Todinesi	-6845
▁Todiniki	-6846
▁Tojorene	-6847
▁Tojuline	-6848
▁Tokoyoke	-6849
▁Tokuruki	-6850
▁Torepimo	-6851
▁Toyiŋaji	-6852
▁Tugwörji	-6853
▁Turuposa	-6854
▁Yaradene	-6855
▁Yayaraki	-6856
▁Yejebele	-6857
▁babarara	-6858
▁barundya	-6859
▁bililyat	-6860
▁böbönöri	-6861
▁dakundye	-6862
▁didiniki	-6863
▁dinikine	-6864
▁dodoŋaki	-6865
▁dokundya	-6866
▁domundya	-6867
▁dudukaji	-6868
▁dukundya	-6869
▁dulajine	-6870
▁dumundyö	-6871
▁duwundya	-6872
▁duwundye	-6873
▁duyömöki	-6874
▁gelundya	-6875
▁gigiIötu	-6876
▁gigirisi	-6877
▁gugubaji	-6878
▁gugubuja	-6879
▁gwagwata	-6880
▁gwelakin	-6881
▁gweundya	-6882
▁gweyanit	-6883
▁gwigwitu	-6884
▁gwoloŋgi	-6885
▁gwugwutö	-6886
▁gwutökin	-6887
▁ijujumbu	-6888
▁jamundye	-6889
▁jekajine	-6890
▁jikundye	-6891
▁jukindya	-6892
▁jurutöki	-6893
▁jwariara	-6894
▁kamundye	-6895
▁kaririat	-6896
▁karuönit	-6897
▁katokuök	-6898
▁kayeyeok	-6899
▁kayuujin	-6900
▁kayuŋwök	-6901
▁kekejutu	-6902
▁kekendya	-6903
▁kerendya	-6904
▁kikijikö	-6905
▁kikindye	-6906
▁kinikine	-6907
▁kitajine	-6908
▁kiösurök	-6909
▁kokonari	-6910
▁kokondya	-6911
▁korakine	-6912
▁korundya	-6913
▁kuIyaesi	-6914
▁kukunaki	-6915
▁kurubasi	-6916
▁kwekweki	-6917
▁kwelenyo	-6918
▁köbuŋösi	-6919
▁ködyöjwe	-6920
▁lakundye	-6921
▁lalaŋaju	-6922
▁likitiat	-6923
▁likitiet	-6924
▁liliitan	-6925
▁liliyene	-6926
▁linyökin	-6927
▁lomoriot	-6928
▁luguriet	-6929
▁lukutiet	-6930
▁lulupujö	-6931
▁luluŋuji	-6932
▁lusököni	-6933
▁luyökiye	-6934
▁lwököddu	-6935
▁lyalyaŋi	-6936
▁mIlyekin	-6937
▁mamagora	-6938
▁matundya	-6939
▁metundya	-6940
▁metundye	-6941
▁meyundya	-6942
▁mimijörö	-6943
▁minyotat	-6944
▁mirundye	-6945
▁mokundya	-6946
▁momoreni	-6947
▁momorotu	-6948
▁monowesi	-6949
▁morakine	-6950
▁morundya	-6951
▁mulundye	-6952
▁mulundyö	-6953
▁mumuluga	-6954
▁mömöjutu	-6955
▁mömörötu	-6956
▁mörikölö	-6957
▁namunyan	-6958
▁nukakine	-6959
▁nyakweri	-6960
▁nyejambu	-6961
▁nyonyola	-6962
▁nyumökin	-6963
▁nyököddi	-6964
▁parasake	-6965
▁pikundyö	-6966
▁pitundye	-6967
▁pupuyuje	-6968
▁putukine	-6969
▁ratundye	-6970
▁regorego	-6971
▁renyaddu	-6972
▁rerekani	-6973
▁rerekesi	-6974
▁rikundye	-6975
▁riköjine	-6976
▁ririkine	-6977
▁riŋundye	-6978
▁rudweesi	-6979
▁rurusukö	-6980
▁rurutuki	-6981
▁rusundyö	-6982
▁rwösökin	-6983
▁ryaryaka	-6984
▁saanijin	-6985
▁sarakine	-6986
▁sasanyet	-6987
▁sukindyö	-6988
▁sukundye	-6989
▁sukundyö	-6990
▁susunyun	-6991
▁tatatuja	-6992
▁taweroni	-6993
▁telundya	-6994
▁terekesi	-6995
▁tetemeja	-6996
▁tetenani	-6997
▁tikindye	-6998
▁timundya	-6999
▁tirikuni	-7000
▁titiriku	-7001
▁tobodwan	-7002
▁todinöri	-7003
▁togiraji	-7004
▁togiresi	-7005
▁tojuline	-7006
▁tojumuki	-7007
▁tokitaji	-7008
▁tokitaki	-7009
▁tolupesi	-7010
▁tolupöji	-7011
▁tomilyaŋ	-7012
▁tomoraki	-7013
▁toperoni	-7014
▁topipine	-7015
▁topuköki	-7016
▁toreaddi	-7017
▁toruköki	-7018
▁totoboŋe	-7019
▁totodinö	-7020
▁totogira	-7021
▁totojumu	-7022
▁totokela	-7023
▁totoreji	-7024
▁totoreki	-7025
▁totoroji	-7026
▁totoyujö	-7027
▁totoŋiyu	-7028
▁toworani	-7029
▁toyiyiki	-7030
▁toyuöddi	-7031
▁tugwörit	-7032
▁tukundye	-7033
▁tukundyö	-7034
▁tulyelye	-7035
▁tutugwör	-7036
▁tutukara	-7037
▁tutupötu	-7038
▁tutuŋöki	-7039
▁tuwatyan	-7040
▁tuyataki	-7041
▁tuŋaraki	-7042
▁twatwaji	-7043
▁twatwaki	-7044
▁wasundya	-7045
▁wekindya	-7046
▁wekindye	-7047
▁wereyone	-7048
▁wiŋundye	-7049
▁woorikin	-7050
▁wuköjine	-7051
▁wusajine	-7052
▁wuwuddye	-7053
▁wuwuköji	-7054
▁wuyundya	-7055
▁wöwökine	-7056
▁wöwöröri	-7057
▁yasipidi	-7058
▁yekundya	-7059
▁yeyekeja	-7060
▁yitökine	-7061
▁yiyimönö	-7062
▁yiyinöri	-7063
▁yodindyö	-7064
▁yoyokoju	-7065
▁yukundya	-7066
▁yukundye	-7067
▁yulundye	-7068
▁yumatyan	-7069
▁yökindyö	-7070
▁yöyöŋöri	-7071
▁ŋakindye	-7072
▁ŋuleddya	-7073
bikikindye	-7074
bilikindya	-7075
bokakindya	-7076
boriarikin	-7077
burukindya	-7078
dukökindye	-7079
dukökindyö	-7080
dumakindye	-7081
yulökindye	-7082
yunyumönit	-7083
▁Akeledama	-7084
▁Ampuliato	-7085
▁Antipatri	-7086
▁Betesaida	-7087
▁Dalamatia	-7088
▁Genesaret	-7089
▁Iomuinyan	-7090
▁Kakitanit	-7091
▁Kakurunit	-7092
▁Kapepenak	-7093
▁Kasasanya	-7094
▁Katiyunit	-7095
▁Katujarak	-7096
▁Kayemanit	-7097
▁Kaŋaranit	-7098
▁Kaŋeranit	-7099
▁Kurenetyo	-7100
▁Kölipönök	-7101
▁Kötumitön	-7102
▁Ludukötyo	-7103
▁MuIökötyo	-7104
▁Mukölötyo	-7105
▁Mulökötyö	-7106
▁Petolemai	-7107
▁Rerenyesi	-7108
▁Sosipater	-7109
▁Turupaina	-7110
▁asekertyo	-7111
▁babarandu	-7112
▁birisiyat	-7113
▁böŋörikin	-7114
▁dedelyaji	-7115
▁emeralido	-7116
▁giginyija	-7117
▁gogonyani	-7118
▁gubakinde	-7119
▁gubarikin	-7120
▁gwililija	-7121
▁gwililije	-7122
▁gwugwugge	-7123
▁gwugwuggö	-7124
▁gwugwulua	-7125
▁gwugwunyö	-7126
▁gwögwörju	-7127
▁gwöröjine	-7128
▁jajamaddu	-7129
▁jajamakin	-7130
▁jamarikin	-7131
▁jurutökin	-7132
▁kabulanit	-7133
▁kadumanit	-7134
▁kagomanit	-7135
▁kajamanit	-7136
▁kakoranit	-7137
▁kakukanit	-7138
▁kakurunit	-7139
▁kalabajin	-7140
▁kalekidon	-7141
▁kalöpukök	-7142
▁kamemetak	-7143
▁kamisajin	-7144
▁kanisajIn	-7145
▁kanitönit	-7146
▁kapitönit	-7147
▁kapupurak	-7148
▁karikönit	-7149
▁karopanit	-7150
▁katetenak	-7151
▁katimanti	-7152
▁katojumuk	-7153
▁katukarak	-7154
▁kaweyanit	-7155
▁kaworonit	-7156
▁kayupönIt	-7157
▁kaŋeranit	-7158
▁kerubajin	-7159
▁kitaundya	-7160
▁kokoladdi	-7161
▁kokoladdu	-7162
▁kujönöesi	-7163
▁kuukujönö	-7164
▁kwatwöyök	-7165
▁kökölökin	-7166
▁kökörökin	-7167
▁körörikin	-7168
▁lalaiaddu	-7169
▁likisojin	-7170
▁liliundya	-7171
▁liliundye	-7172
▁logulusen	-7173
▁lokiliŋan	-7174
▁lokokorit	-7175
▁loliliŋök	-7176
▁lomuryeje	-7177
▁losisilaŋ	-7178
▁lotolokok	-7179
▁lotonoŋak	-7180
▁lowulekak	-7181
▁loŋayokok	-7182
▁lukadaŋak	-7183
▁luŋurikin	-7184
▁lölöpuggö	-7185
▁löpuköddi	-7186
▁löpuköddu	-7187
▁mimirakin	-7188
▁momokaddu	-7189
▁momoraddi	-7190
▁muIökötyo	-7191
▁mumuIugge	-7192
▁munyundya	-7193
▁murugujin	-7194
▁möndiliet	-7195
▁naliliŋök	-7196
▁namarikin	-7197
▁naporoŋok	-7198
▁nekenejin	-7199
▁nyanyaggu	-7200
▁nyekindyö	-7201
▁nyonyoran	-7202
▁nyunyumwe	-7203
▁nyökundyö	-7204
▁nyömöjine	-7205
▁petarikin	-7206
▁pipinyaki	-7207
▁pupukökin	-7208
▁rerenyani	-7209
▁rerenyari	-7210
▁rijikijin	-7211
▁riŋarikin	-7212
▁rugwuŋöni	-7213
▁rurugwuŋö	-7214
▁rurukökin	-7215
▁rurutukin	-7216
▁ryaryaggu	-7217
▁sasanyani	-7218
▁sasanyari	-7219
▁suluundya	-7220
▁taripatat	-7221
▁tetenaddu	-7222
▁todelyaji	-7223
▁todumalaŋ	-7224
▁togiraddi	-7225
▁tokimakan	-7226
▁tokitakin	-7227
▁tokoyogga	-7228
▁tokurukin	-7229
▁tokuöjine	-7230
▁toliliket	-7231
▁toludugge	-7232
▁tomodoŋan	-7233
▁topirikin	-7234
▁tosunyuki	-7235
▁totogirja	-7236
▁totokorji	-7237
▁totopukun	-7238
▁tototumbö	-7239
▁toyuöjine	-7240
▁toŋkwetan	-7241
▁toŋutulan	-7242
▁tulyaŋesi	-7243
▁tunyundyö	-7244
▁tupaganon	-7245
▁tutukarut	-7246
▁tutuköddu	-7247
▁tutukökin	-7248
▁tutusörju	-7249
▁tutuŋöddi	-7250
▁tuyatakin	-7251
▁tuŋaundye	-7252
▁wawasakin	-7253
▁wiwinyani	-7254
▁wuwulökin	-7255
▁yeyekaddu	-7256
▁yiyinikin	-7257
▁yiyiundye	-7258
▁yukuundye	-7259
▁yupörikin	-7260
▁Adaramitio	-7261
▁Andaroniko	-7262
▁Aristobulo	-7263
▁Ejipetotyo	-7264
▁Etiopiatyo	-7265
▁Genesareta	-7266
▁Getesemane	-7267
▁Kapernauma	-7268
▁Kuresekene	-7269
▁Kurudwötti	-7270
▁Kwakwasaki	-7271
▁Kwakwasesi	-7272
▁Malaikatat	-7273
▁Morakindye	-7274
▁Pirisikila	-7275
▁Romakindye	-7276
▁Rukökindye	-7277
▁Samotrakia	-7278
▁Sarakindye	-7279
▁Yulukindye	-7280
▁babatisari	-7281
▁barandajin	-7282
▁baranyaddi	-7283
▁buIakindya	-7284
▁böbönundyö	-7285
▁delyarikin	-7286
▁derakindye	-7287
▁dodokundye	-7288
▁dodomundya	-7289
▁dukakindye	-7290
▁dukukindyö	-7291
▁dulakindya	-7292
▁dulakindye	-7293
▁durökindye	-7294
▁dyadyalesi	-7295
▁galakindye	-7296
▁gubakindya	-7297
▁gwuluŋöddi	-7298
▁gömökindyö	-7299
▁jokakindya	-7300
▁jokakindye	-7301
▁jujukindye	-7302
▁jöjölöjine	-7303
▁kalakindye	-7304
▁karakindye	-7305
▁karerenyak	-7306
▁karyakanit	-7307
▁katoruönir	-7308
▁katugwörök	-7309
▁kekerendya	-7310
▁korakindye	-7311
▁kulyarikin	-7312
▁kurutundyö	-7313
▁kweyarikin	-7314
▁köIökIndye	-7315
▁liŋikindye	-7316
▁loŋakindye	-7317
▁lukwölöŋök	-7318
▁lulukundya	-7319
▁lulukundye	-7320
▁lulurundye	-7321
▁luŋukindye	-7322
▁maIaikatat	-7323
▁mamanyaddu	-7324
▁matakindya	-7325
▁milyörikin	-7326
▁nasulyöŋök	-7327
▁nyalakaddu	-7328
▁nyönyökesi	-7329
▁pararaaddi	-7330
▁pepenundye	-7331
▁pipilundye	-7332
▁pukökindye	-7333
▁pupunundye	-7334
▁pupurundya	-7335
▁renyarikin	-7336
▁ririkindye	-7337
▁riŋakindya	-7338
▁röpökindyö	-7339
▁sarakIndye	-7340
▁sukökindyö	-7341
▁tetenakine	-7342
▁tokulyakin	-7343
▁topunundye	-7344
▁topurundyö	-7345
▁torakindya	-7346
▁torakindye	-7347
▁torigwöggi	-7348
▁torigwöggu	-7349
▁totodindyö	-7350
▁totokwelen	-7351
▁totoludukö	-7352
▁totopurwan	-7353
▁totorondya	-7354
▁toworundya	-7355
▁tujarundya	-7356
▁tukukindye	-7357
▁tukwöriene	-7358
▁turakindya	-7359
▁tutukundye	-7360
▁twöyörikin	-7361
▁tökökindye	-7362
▁wulökindyö	-7363
▁wöriŋöjine	-7364
▁yakakindye	-7365
▁yekakindye	-7366
▁yinikindye	-7367
▁yukakindya	-7368
▁yukakindye	-7369
▁yukukindye	-7370
▁yulukindyö	-7371
▁ŋarakIndye	-7372
▁ŋaŋarundya	-7373
▁ŋetakindya	-7374
▁ŋöŋökindyö	-7375
▁Galilayatyo	-7376
▁Kajujumunit	-7377
▁Katojumunit	-7378
▁Katukaranit	-7379
▁Mesopotamia	-7380
▁Piladelapia	-7381
▁batisimojin	-7382
▁gwagwalaggi	-7383
▁gwatakindye	-7384
▁gwelakindya	-7385
▁gwelakindye	-7386
▁gwigwiliŋgi	-7387
▁gwogwoloŋgi	-7388
▁gwugwuluŋgö	-7389
▁gwululuöddu	-7390
▁gwörökindye	-7391
▁jajamarikin	-7392
▁kajujuwanit	-7393
▁kamomoronit	-7394
▁kasuluwanit	-7395
▁katojumunit	-7396
▁katoŋiyunit	-7397
▁kayuyukönit	-7398
▁kekerenyani	-7399
▁kerenyundya	-7400
▁kwakakindye	-7401
▁kweniarikin	-7402
▁likikirilön	-7403
▁lulupörikin	-7404
▁lyölyöŋiörö	-7405
▁mwönyörikin	-7406
▁nyelakindya	-7407
▁nyelakindye	-7408
▁renyakindye	-7409
▁rerekarikin	-7410
▁rerenyajine	-7411
▁ririŋarikin	-7412
▁rurukarikin	-7413
▁sereserejin	-7414
▁sunyukindyö	-7415
▁tanyakindye	-7416
▁todinörikin	-7417
▁tokororikin	-7418
▁tomirikulan	-7419
▁totodinikin	-7420
▁totogoloddu	-7421
▁totokeladdu	-7422
▁totokujöndu	-7423
▁totokuöjine	-7424
▁totopukökin	-7425
▁totoyiyikin	-7426
▁tutuŋarakin	-7427
▁yuyukörikin	-7428
buggöjolonyon	-7429
▁Toyiyikindye	-7430
▁dedelyarikin	-7431
▁gigirikindya	-7432
▁jurutökindye	-7433
▁kakwekweniak	-7434
▁katugwörönit	-7435
▁kukunakindya	-7436
▁kulyejurakan	-7437
▁mumulukundya	-7438
▁mumulukundye	-7439
▁todinikindye	-7440
▁tokoyokundya	-7441
▁tokwelenyoni	-7442
▁tokwilinyiki	-7443
▁topirikindye	-7444
▁topukökindyö	-7445
▁toyiyikindye	-7446
▁gwoŋkorokokan	-7447
▁kadyadyalanit	-7448
▁kadyadyaŋanit	-7449
▁kanyunyumönit	-7450
▁kwekweniarikin	-7451
Ab	-7452
Ad	-7453
Ag	-7454
Ai	-7455
Aj	-7456
Ak	-7457
Al	-7458
Am	-7459
Ap	-7460
Ar	-7461
As	-7462
At	-7463
Au	-7464
Aw	-7465
Bi	-7466
Bö	-7467
DA	-7468
Da	-7469
Eb	-7470
Ed	-7471
Ee	-7472
Ej	-7473
El	-7474
Em	-7475
En	-7476
Ep	-7477
Er	-7478
Es	-7479
Et	-7480
Eu	-7481
Ga	-7482
Ge	-7483
Gi	-7484
Go	-7485
Gu	-7486
Gw	-7487
Ik	-7488
Il	-7489
Ir	-7490
Is	-7491
Iw	-7492
Iy	-7493
Iŋ	-7494
Iɛ	-7495
KI	-7496
Ka	-7497
Ki	-7498
Kr	-7499
An	-7500
Ku	-7501
Kw	-7502
Kö	-7503
La	-7504
Le	-7505
Li	-7506
Lo	-7507
Lu	-7508
Lw	-7509
Ly	-7510
Lö	-7511
Ma	-7512
Me	-7513
Mi	-7514
Mo	-7515
Mu	-7516
Mö	-7517
Na	-7518
Ne	-7519
Ni	-7520
No	-7521
Nu	-7522
Ny	-7523
Pa	-7524
Pe	-7525
Pi	-7526
Po	-7527
Pu	-7528
Re	-7529
Ri	-7530
Ro	-7531
Sa	-7532
Se	-7533
Si	-7534
So	-7535
Su	-7536
TI	-7537
TL	-7538
Ta	-7539
Te	-7540
Ti	-7541
To	-7542
Tu	-7543
Tw	-7544
Tö	-7545
YA	-7546
YE	-7547
YI	-7548
Ya	-7549
Ye	-7550
Yi	-7551
Yo	-7552
Yu	-7553
Yö	-7554
aI	-7555
aa	-7556
ab	-7557
ad	-7558
ae	-7559
ag	-7560
aj	-7561
am	-7562
ao	-7563
ap	-7564
as	-7565
au	-7566
aw	-7567
ay	-7568
bb	-7569
dd	-7570
dw	-7571
dy	-7572
eI	-7573
ea	-7574
eb	-7575
ed	-7576
ee	-7577
eg	-7578
ei	-7579
ej	-7580
el	-7581
em	-7582
eu	-7583
ew	-7584
ey	-7585
gr	-7586
ib	-7587
id	-7588
ig	-7589
ij	-7590
ir	-7591
is	-7592
iw	-7593
iy	-7594
iö	-7595
jw	-7596
kI	-7597
kg	-7598
kj	-7599
kt	-7600
kü	-7601
kɛ	-7602
lt	-7603
lw	-7604
ly	-7605
lü	-7606
lŋ	-7607
mI	-7608
mb	-7609
mw	-7610
mö	-7611
mü	-7612
nI	-7613
nd	-7614
nj	-7615
nk	-7616
nl	-7617
nr	-7618
nt	-7619
nu	-7620
nw	-7621
ny	-7622
nö	-7623
nɛ	-7624
oI	-7625
ob	-7626
od	-7627
og	-7628
oi	-7629
oj	-7630
ol	-7631
om	-7632
oo	-7633
op	-7634
os	-7635
ow	-7636
oy	-7637
pr	-7638
py	-7639
rb	-7640
rd	-7641
rg	-7642
rj	-7643
rk	-7644
rm	-7645
rn	-7646
rs	-7647
rt	-7648
rw	-7649
rü	-7650
ss	-7651
st	-7652
sw	-7653
sɛ	-7654
tr	-7655
tt	-7656
tw	-7657
ty	-7658
uI	-7659
ua	-7660
ub	-7661
ud	-7662
ug	-7663
ui	-7664
uj	-7665
uo	-7666
up	-7667
us	-7668
uw	-7669
uy	-7670
uö	-7671
wu	-7672
yI	-7673
yü	-7674
öI	-7675
öb	-7676
öd	-7677
öe	-7678
ög	-7679
öi	-7680
öj	-7681
öl	-7682
öm	-7683
öp	-7684
ös	-7685
öu	-7686
öw	-7687
öy	-7688
öö	-7689
öŋ	-7690
üj	-7691
ül	-7692
üs	-7693
ŋI	-7694
ŋg	-7695
ŋi	-7696
ŋj	-7697
ŋk	-7698
ŋo	-7699
ŋs	-7700
ŋt	-7701
ŋw	-7702
ŋy	-7703
▁ö	-7704
Adi	-7705
Ain	-7706
Bat	-7707
Ben	-7708
Buk	-7709
Dal	-7710
Din	-7711
Duk	-7712
Eun	-7713
Get	-7714
Gwe	-7715
Ion	-7716
Ior	-7717
Iuk	-7718
Iye	-7719
Kat	-7720
Ket	-7721
Kin	-7722
Kon	-7723
Kri	-7724
Kul	-7725
Kun	-7726
Lin	-7727
Lon	-7728
Luk	-7729
Mar	-7730
Min	-7731
Mon	-7732
Mul	-7733
Nat	-7734
Nin	-7735
Nye	-7736
Pat	-7737
Pes	-7738
Pet	-7739
Pin	-7740
Pit	-7741
Pon	-7742
Rin	-7743
Riŋ	-7744
Sin	-7745
Son	-7746
Sul	-7747
Tak	-7748
Teŋ	-7749
Tin	-7750
Tit	-7751
Tun	-7752
Yan	-7753
Yes	-7754
Yiŋ	-7755
Yon	-7756
Yul	-7757
Yun	-7758
adi	-7759
agw	-7760
ain	-7761
aje	-7762
aju	-7763
ark	-7764
aro	-7765
ase	-7766
att	-7767
atw	-7768
aty	-7769
aun	-7770
awe	-7771
aye	-7772
aŋg	-7773
aŋö	-7774
bay	-7775
beb	-7776
bin	-7777
buI	-7778
daa	-7779
dat	-7780
dej	-7781
dem	-7782
der	-7783
des	-7784
did	-7785
die	-7786
dig	-7787
dij	-7788
dil	-7789
dis	-7790
dol	-7791
dor	-7792
dot	-7793
duj	-7794
dul	-7795
dwö	-7796
dön	-7797
eit	-7798
eko	-7799
Diŋ	-7800
Met	-7801
Nya	-7802
Tul	-7803
Yit	-7804
ars	-7805
aya	-7806
diI	-7807
dib	-7808
dug	-7809
egw	-7810
ent	-7811
eon	-7812
etu	-7813
eya	-7814
eye	-7815
eŋa	-7816
eŋo	-7817
geI	-7818
get	-7819
gil	-7820
gin	-7821
gio	-7822
goŋ	-7823
gri	-7824
gul	-7825
gwa	-7826
gwu	-7827
iak	-7828
iat	-7829
ien	-7830
ies	-7831
igw	-7832
inI	-7833
ind	-7834
int	-7835
inu	-7836
iny	-7837
inö	-7838
inɛ	-7839
ion	-7840
iru	-7841
itw	-7842
iye	-7843
iyi	-7844
jan	-7845
jeb	-7846
jol	-7847
jul	-7848
jup	-7849
juw	-7850
jör	-7851
kar	-7852
keb	-7853
kem	-7854
kep	-7855
kes	-7856
ket	-7857
kid	-7858
kip	-7859
kod	-7860
kul	-7861
lap	-7862
lat	-7863
lum	-7864
lun	-7865
lut	-7866
löŋ	-7867
maI	-7868
mag	-7869
mai	-7870
may	-7871
mel	-7872
mes	-7873
mij	-7874
mit	-7875
mök	-7876
mör	-7877
nat	-7878
ndi	-7879
net	-7880
nia	-7881
non	-7882
nwe	-7883
nyo	-7884
ode	-7885
odo	-7886
odu	-7887
ogg	-7888
ogw	-7889
oin	-7890
oko	-7891
ole	-7892
ond	-7893
onj	-7894
ono	-7895
ont	-7896
ony	-7897
ori	-7898
oye	-7899
Bet	-7900
Bit	-7901
Gul	-7902
Kit	-7903
Mat	-7904
Mit	-7905
Nar	-7906
Tet	-7907
Yeŋ	-7908
arj	-7909
aul	-7910
ban	-7911
ber	-7912
eri	-7913
eun	-7914
eŋg	-7915
iit	-7916
ity	-7917
itö	-7918
kat	-7919
lit	-7920
lom	-7921
mul	-7922
obe	-7923
ome	-7924
oyo	-7925
oŋo	-7926
pak	-7927
pik	-7928
pin	-7929
pip	-7930
pon	-7931
pul	-7932
pök	-7933
ral	-7934
rat	-7935
rdi	-7936
rea	-7937
reg	-7938
rel	-7939
rep	-7940
rey	-7941
rga	-7942
rig	-7943
rio	-7944
rir	-7945
riu	-7946
rod	-7947
rog	-7948
▁	-7949
a	-7950
n	-7951
i	-7952
o	-7953
k	-7954
e	-7955
u	-7956
t	-7957
l	-7958
y	-7959
ŋ	-7960
d	-7961
g	-7962
ö	-7963
r	-7964
w	-7965
m	-7966
s	-7967
,	-7968
j	-7969
p	-7970
'	-7971
b	-7972
.	-7973
A	-7974
K	-7975
Y	-7976
M	-7977
N	-7978
L	-7979
;	-7980
T	-7981
S	-7982
P	-7983
I	-7984
D	-7985
?	-7986
B	-7987
-	-7988
ɛ	-7989
)	-7990
!	-7991
E	-7992
G	-7993
R	-7994
ü	-7995
