<pad>	0
<unk>	0
<s>	0
</s>	0
▁k	-0
▁a	-1
▁n	-2
▁l	-3
▁t	-4
▁ko	-5
▁na	-6
on	-7
in	-8
▁ŋ	-9
▁i	-10
ye	-11
▁lo	-12
gw	-13
ya	-14
di	-15
▁m	-16
▁ka	-17
ut	-18
ul	-19
un	-20
▁gw	-21
▁s	-22
it	-23
▁'	-24
gon	-25
▁ti	-26
eŋ	-27
▁ta	-28
▁le	-29
▁ŋut	-30
at	-31
▁A	-32
▁kul	-33
ri	-34
▁y	-35
de	-36
an	-37
peŋ	-38
▁p	-39
▁adi	-40
▁kö	-41
▁lepeŋ	-42
▁nan	-43
ur	-44
▁se	-45
ma	-46
kin	-47
▁Ŋ	-48
▁ŋutu	-49
et	-50
yö	-51
▁nye	-52
▁to	-53
▁kulya	-54
il	-55
▁K	-56
es	-57
du	-58
▁logon	-59
ju	-60
iŋ	-61
▁mo	-62
▁nagon	-63
▁Y	-64
▁w	-65
uk	-66
dya	-67
▁j	-68
▁Ŋun	-69
yen	-70
▁gwon	-71
we	-72
ge	-73
ök	-74
yit	-75
ar	-76
je	-77
▁ŋo	-78
ön	-79
▁b	-80
gwon	-81
▁ki	-82
▁yi	-83
or	-84
do	-85
oŋ	-86
▁r	-87
ak	-88
▁N	-89
▁M	-90
▁liŋ	-91
▁gwe	-92
dyö	-93
ti	-94
▁gwo	-95
er	-96
uŋ	-97
ine	-98
ik	-99
▁ŋuto	-100
▁kogwon	-101
en	-102
ug	-103
▁kas	-104
yo	-105
▁kan	-106
wö	-107
▁aje	-108
ilo	-109
esi	-110
dye	-111
▁an	-112
rik	-113
▁kon	-114
▁do	-115
up	-116
▁pi	-117
esu	-118
jin	-119
▁Yesu	-120
ba	-121
▁ama	-122
le	-123
▁kwe	-124
▁L	-125
▁anyen	-126
den	-127
so	-128
▁kanyit	-129
ör	-130
▁gwoso	-131
▁kak	-132
da	-133
▁nu	-134
▁Ko	-135
ji	-136
▁mug	-137
ona	-138
▁T	-139
▁kun	-140
▁mugun	-141
gel	-142
ddi	-143
▁iŋ	-144
▁gel	-145
▁g	-146
akin	-147
bö	-148
si	-149
ja	-150
ot	-151
▁köti	-152
▁geleŋ	-153
ki	-154
▁yu	-155
to	-156
▁kulo	-157
▁lepeŋat	-158
▁ködyö	-159
al	-160
▁kaŋ	-161
yena	-162
▁Nyena	-163
atat	-164
▁ri	-165
yu	-166
▁iŋge	-167
▁P	-168
us	-169
ŋit	-170
▁tin	-171
▁S	-172
▁ye	-173
ni	-174
wa	-175
▁kune	-176
ok	-177
▁po	-178
yin	-179
▁ja	-180
▁ŋin	-181
um	-182
wan	-183
ga	-184
▁kine	-185
▁lele	-186
▁me	-187
▁luŋ	-188
mb	-189
▁kase	-190
▁kilo	-191
▁kasu	-192
▁nanyit	-193
▁Matat	-194
▁kat	-195
rit	-196
▁den	-197
▁pa	-198
but	-199
▁Ama	-200
▁pirit	-201
duma	-202
ökin	-203
▁Nan	-204
▁di	-205
ara	-206
▁tok	-207
din	-208
yan	-209
gi	-210
gu	-211
▁kaŋo	-212
▁kulyani	-213
ala	-214
▁ni	-215
ökö	-216
▁Kogwon	-217
ris	-218
▁ŋina	-219
▁Kris	-220
ek	-221
yar	-222
▁Kristo	-223
▁tor	-224
▁duma	-225
▁Le	-226
ore	-227
▁de	-228
▁tö	-229
▁kata	-230
▁diŋit	-231
jo	-232
ulö	-233
▁kode	-234
bayin	-235
dek	-236
bur	-237
uro	-238
▁töil	-239
ddu	-240
▁I	-241
jik	-242
▁lu	-243
▁parik	-244
▁tindu	-245
▁yiŋ	-246
öŋ	-247
▁kondya	-248
se	-249
▁kit	-250
undye	-251
▁ŋilo	-252
ko	-253
su	-254
▁Lepeŋ	-255
akindya	-256
aŋ	-257
kindya	-258
börik	-259
▁jamb	-260
▁lor	-261
▁jore	-262
▁yeye	-263
wöŋ	-264
▁köl	-265
▁tine	-266
▁kom	-267
▁sar	-268
ulökö	-269
yet	-270
▁tu	-271
▁te	-272
▁D	-273
örö	-274
▁si	-275
▁bu	-276
▁komoŋ	-277
▁sona	-278
öŋö	-279
▁wu	-280
▁kulye	-281
yöŋ	-282
is	-283
▁ny	-284
▁kar	-285
yi	-286
tyo	-287
▁twan	-288
▁Ta	-289
bo	-290
▁ku	-291
kindye	-292
▁kok	-293
addi	-294
ia	-295
öki	-296
önit	-297
▁met	-298
▁lon	-299
▁ru	-300
aki	-301
▁ma	-302
juju	-303
▁jambu	-304
▁toron	-305
▁B	-306
ene	-307
diri	-308
▁wur	-309
ata	-310
ulu	-311
urek	-312
▁böŋö	-313
bi	-314
▁kita	-315
bak	-316
uda	-317
▁lonyit	-318
ani	-319
▁iti	-320
▁köju	-321
gö	-322
oro	-323
ip	-324
▁jur	-325
me	-326
ane	-327
rut	-328
asi	-329
▁yup	-330
ulökötyo	-331
▁kirut	-332
mor	-333
▁Yuda	-334
öni	-335
▁yub	-336
ondi	-337
▁waddi	-338
go	-339
undya	-340
ikaŋ	-341
▁muk	-342
▁nyo	-343
▁kadi	-344
▁murek	-345
▁nene	-346
▁töilyet	-347
ana	-348
gwo	-349
inyo	-350
▁Ti	-351
duŋ	-352
undyö	-353
▁pije	-354
▁mer	-355
muk	-356
▁Ŋut	-357
▁li	-358
▁lwö	-359
as	-360
▁riŋit	-361
tu	-362
▁lup	-363
▁Sar	-364
▁Mulökötyo	-365
▁kajuju	-366
▁nyar	-367
▁meddi	-368
▁yubbö	-369
ddya	-370
ke	-371
▁tuk	-372
atyan	-373
▁Yudaya	-374
onye	-375
▁tojo	-376
▁Ŋuro	-377
▁ŋona	-378
umatyan	-379
aba	-380
önö	-381
▁Do	-382
ab	-383
wak	-384
akindye	-385
▁deden	-386
dur	-387
▁ro	-388
utet	-389
alaik	-390
▁köyö	-391
▁karin	-392
▁malaik	-393
▁kajujumuk	-394
▁ke	-395
▁tet	-396
▁mö	-397
asirik	-398
▁ŋa	-399
▁nyö	-400
▁Saresi	-401
▁Yi	-402
ajin	-403
▁lö	-404
▁kiden	-405
ulo	-406
▁yupet	-407
dekan	-408
loŋ	-409
▁bulö	-410
▁bub	-411
ele	-412
▁nio	-413
▁momor	-414
▁swö	-415
po	-416
la	-417
▁Pa	-418
ggi	-419
▁tatu	-420
▁likaŋ	-421
▁tindi	-422
jö	-423
ŋga	-424
▁mor	-425
▁lwöl	-426
▁todin	-427
ari	-428
oŋin	-429
oŋinana	-430
▁G	-431
▁Kö	-432
▁yeŋ	-433
wakwa	-434
▁sulu	-435
▁mukök	-436
iki	-437
▁Ka	-438
▁Nyenagon	-439
dan	-440
▁Paulo	-441
▁rigwo	-442
▁nyen	-443
▁lio	-444
ose	-445
▁kwöŋ	-446
▁lyöŋ	-447
▁nyuŋ	-448
▁ŋuro	-449
▁Baba	-450
uggö	-451
▁nyesu	-452
▁Yudayaki	-453
▁pondi	-454
▁teten	-455
wat	-456
▁swöt	-457
▁teme	-458
▁bubulö	-459
pi	-460
▁nyu	-461
▁twö	-462
bura	-463
▁kwakwa	-464
▁nyarju	-465
▁temejik	-466
▁joŋ	-467
▁E	-468
enya	-469
▁toku	-470
▁kulyaesi	-471
▁soŋinana	-472
be	-473
▁lw	-474
▁kur	-475
▁ŋar	-476
▁ŋer	-477
wajik	-478
▁nyena	-479
▁yiŋge	-480
▁töili	-481
anit	-482
ero	-483
upi	-484
yaŋ	-485
▁ga	-486
▁kölip	-487
▁takindya	-488
oke	-489
▁Lo	-490
▁lwölwöŋ	-491
ili	-492
▁mi	-493
▁nak	-494
▁rer	-495
▁Loke	-496
▁koane	-497
▁kokwe	-498
▁d	-499
yak	-500
▁ada	-501
▁tom	-502
▁nyona	-503
▁ŋwajik	-504
▁luŋasirik	-505
▁Pet	-506
▁gwak	-507
▁wurö	-508
ökindyö	-509
urut	-510
örun	-511
▁Petero	-512
▁meddya	-513
usala	-514
▁Ŋuto	-515
ate	-516
▁kuj	-517
▁yuŋ	-518
▁Mose	-519
▁köji	-520
▁nyan	-521
ökindye	-522
▁in	-523
▁wor	-524
▁inot	-525
▁jörun	-526
dwe	-527
ilu	-528
oŋe	-529
▁Lepeŋat	-530
▁nyanyar	-531
usa	-532
▁kuk	-533
▁kiko	-534
pa	-535
isa	-536
lot	-537
▁go	-538
usan	-539
▁boŋ	-540
▁luk	-541
▁löp	-542
▁wuju	-543
▁ŋupi	-544
▁mugunya	-545
met	-546
▁mil	-547
ebi	-548
▁pu	-549
erok	-550
▁nar	-551
▁twat	-552
liŋ	-553
▁An	-554
▁nase	-555
▁ya	-556
▁kut	-557
öt	-558
▁ruk	-559
▁toke	-560
▁kweja	-561
▁milye	-562
▁yeyeju	-563
▁tumatyan	-564
▁tit	-565
▁tut	-566
▁ŋerot	-567
▁konyen	-568
▁takindye	-569
dok	-570
duk	-571
gga	-572
▁malaikatat	-573
tum	-574
▁da	-575
örju	-576
▁bur	-577
▁jama	-578
▁perok	-579
▁taliŋ	-580
▁gwondi	-581
ro	-582
buk	-583
ggu	-584
▁kam	-585
▁nasu	-586
▁nebi	-587
▁Yer	-588
▁toŋ	-589
▁kana	-590
▁jurön	-591
▁twatwa	-592
nin	-593
▁jo	-594
▁ŋi	-595
▁rop	-596
▁Ŋilo	-597
▁könin	-598
▁Yo	-599
lema	-600
▁agu	-601
tumit	-602
▁Yerusa	-603
▁lyöŋön	-604
umbö	-605
dutet	-606
▁kötumit	-607
▁Yerusalema	-608
uki	-609
▁rye	-610
▁teŋ	-611
▁yit	-612
▁toto	-613
▁musala	-614
▁saresi	-615
bul	-616
▁ŋinu	-617
bu	-618
man	-619
busan	-620
▁puök	-621
▁kulyaet	-622
▁4	-623
▁gu	-624
abat	-625
▁pup	-626
▁tör	-627
▁wot	-628
▁luŋu	-629
▁buryo	-630
▁toronjin	-631
▁R	-632
dir	-633
mot	-634
önök	-635
▁wul	-636
▁kato	-637
▁rima	-638
kindyö	-639
▁1	-640
dit	-641
ina	-642
▁ju	-643
▁bul	-644
▁Loŋe	-645
▁gurut	-646
▁lukata	-647
▁kwakwaddu	-648
addu	-649
▁kinyo	-650
▁konut	-651
▁renya	-652
▁gwoloŋ	-653
▁nakwan	-654
ber	-655
iri	-656
▁kal	-657
▁ryö	-658
▁toŋi	-659
▁Yoane	-660
▁kujönö	-661
ete	-662
dupi	-663
▁Ŋutu	-664
▁Monye	-665
▁saret	-666
lo	-667
▁ar	-668
bara	-669
ugge	-670
mbata	-671
▁Kilo	-672
▁Io	-673
aser	-674
▁Yis	-675
▁daŋ	-676
▁lili	-677
▁tiki	-678
▁twöju	-679
li	-680
pu	-681
aka	-682
ato	-683
▁kay	-684
▁Köti	-685
▁nyin	-686
▁putet	-687
▁tokor	-688
▁Si	-689
▁mu	-690
yöki	-691
beron	-692
▁ilot	-693
▁mede	-694
▁popo	-695
▁monye	-696
dum	-697
▁bia	-698
▁puk	-699
yökie	-700
▁kulu	-701
▁gworo	-702
▁ambata	-703
▁arabat	-704
ie	-705
▁3	-706
▁par	-707
▁ŋilu	-708
▁lorok	-709
▁tikin	-710
öri	-711
Diri	-712
dini	-713
nisi	-714
▁kona	-715
▁Ŋina	-716
▁kondi	-717
▁könisi	-718
▁luyökie	-719
lya	-720
▁jam	-721
▁Tumatyan	-722
koi	-723
▁so	-724
▁we	-725
uluŋ	-726
▁ken	-727
▁malaikajin	-728
idi	-729
▁Par	-730
▁lok	-731
▁iŋwan	-732
▁mulökö	-733
mu	-734
don	-735
enye	-736
▁sun	-737
▁kima	-738
▁losu	-739
▁ruba	-740
▁togo	-741
▁luŋgu	-742
▁merya	-743
▁narok	-744
urup	-745
▁Kul	-746
▁kunök	-747
▁ködini	-748
ila	-749
ŋon	-750
▁la	-751
aran	-752
oron	-753
öddi	-754
▁kayaŋ	-755
▁parara	-756
▁luŋaser	-757
▁rubaŋga	-758
▁2	-759
öddu	-760
▁tuŋ	-761
▁pioŋ	-762
▁kutuk	-763
▁minyo	-764
▁ŋoŋga	-765
▁kölumbö	-766
mo	-767
ŋe	-768
dep	-769
▁Pil	-770
▁pit	-771
▁sas	-772
▁kimaŋ	-773
▁pupur	-774
▁rerek	-775
▁Yisara	-776
mona	-777
umul	-778
▁Kine	-779
baraya	-780
▁ŋurup	-781
▁Abaraya	-782
▁Yisaraele	-783
lu	-784
▁ŋoŋ	-785
▁wörö	-786
▁Abarayama	-787
te	-788
dik	-789
usi	-790
aria	-791
▁pip	-792
bulit	-793
▁kunie	-794
▁tatua	-795
▁yiŋga	-796
▁konesi	-797
▁kwekindya	-798
▁kölipönök	-799
deb	-800
dukö	-801
▁kin	-802
▁loki	-803
▁jambi	-804
▁dendya	-805
▁Da	-806
▁kölipönit	-807
mba	-808
▁Nye	-809
▁mok	-810
dweki	-811
▁nikaŋ	-812
▁sasan	-813
bukuluŋ	-814
▁suluje	-815
▁tokujö	-816
▁koanejin	-817
mun	-818
▁bat	-819
▁lut	-820
▁yen	-821
▁juju	-822
▁lupö	-823
usijin	-824
▁yeyeesi	-825
▁Parusijin	-826
bön	-827
yur	-828
alet	-829
jine	-830
▁yuy	-831
▁lala	-832
▁kayup	-833
▁yuŋwe	-834
▁kweyet	-835
▁todindyö	-836
nyö	-837
▁Sa	-838
daet	-839
iliŋ	-840
▁Gal	-841
▁guba	-842
▁jojo	-843
▁lose	-844
▁wate	-845
▁joŋga	-846
▁kokon	-847
▁luŋgi	-848
▁memet	-849
▁kanisa	-850
▁nyönyö	-851
▁suluja	-852
▁tatuja	-853
▁ludweki	-854
udi	-855
▁Na	-856
yesi	-857
▁kiŋ	-858
▁Kadi	-859
▁nake	-860
▁pija	-861
▁suny	-862
▁woran	-863
▁Simona	-864
kwe	-865
lip	-866
usök	-867
örji	-868
▁loke	-869
▁tawe	-870
▁ŋote	-871
▁gweya	-872
Ba	-873
uru	-874
asia	-875
dure	-876
▁kor	-877
Bayin	-878
rikin	-879
▁Masia	-880
▁joŋgi	-881
▁katodin	-882
▁nebijin	-883
gwat	-884
usik	-885
debba	-886
ilaya	-887
▁Kulya	-888
▁kamör	-889
▁gwogwo	-890
▁ludukö	-891
▁boŋgwat	-892
▁Galilaya	-893
▁Ma	-894
▁Luŋ	-895
▁buk	-896
▁kuku	-897
▁ŋien	-898
dekesi	-899
▁boŋgo	-900
▁kurun	-901
▁kusik	-902
▁lalet	-903
▁lodir	-904
▁löpuk	-905
▁tomor	-906
dud	-907
riat	-908
▁gwi	-909
▁riŋ	-910
▁woŋ	-911
▁yuk	-912
abata	-913
▁Mete	-914
▁tema	-915
▁ŋini	-916
▁kulök	-917
▁loron	-918
▁pokin	-919
▁roman	-920
▁tuggö	-921
▁yitwe	-922
dö	-923
ako	-924
kit	-925
wök	-926
wör	-927
▁wi	-928
kine	-929
▁kör	-930
duŋgö	-931
▁alip	-932
▁kido	-933
▁ŋine	-934
▁binyo	-935
▁delya	-936
▁pusök	-937
▁Sabata	-938
▁gwiliŋ	-939
▁lupudi	-940
▁merenye	-941
▁Ro	-942
waje	-943
widi	-944
▁son	-945
▁lwök	-946
▁Dawidi	-947
▁toŋiyu	-948
▁momorja	-949
ipo	-950
▁Iŋ	-951
wöri	-952
▁köb	-953
▁kunu	-954
▁meta	-955
▁möju	-956
▁pele	-957
duŋöki	-958
▁daŋin	-959
▁ryeji	-960
▁tawero	-961
▁kayupök	-962
▁momoret	-963
öl	-964
▁sa	-965
▁yö	-966
▁dya	-967
▁kuI	-968
yakwa	-969
wörien	-970
▁mumul	-971
▁alipan	-972
▁lupöni	-973
▁tokela	-974
▁kamörök	-975
▁Luŋasirik	-976
▁rubaŋgajin	-977
yok	-978
anat	-979
aten	-980
ikin	-981
kosi	-982
oroŋ	-983
▁jon	-984
▁tul	-985
akobo	-986
▁Kato	-987
▁görö	-988
▁sörju	-989
▁Yakobo	-990
▁mokosi	-991
▁kiŋajin	-992
▁lutaten	-993
▁löpuggö	-994
▁yuŋundye	-995
ne	-996
les	-997
▁Nyo	-998
▁möm	-999
▁mön	-1000
▁rik	-1001
▁tup	-1002
▁yin	-1003
▁lwöŋ	-1004
▁tutuŋ	-1005
▁yeŋon	-1006
▁ŋarakindya	-1007
andu	-1008
▁tiri	-1009
▁koŋon	-1010
▁lilim	-1011
▁mudwe	-1012
▁nyakwa	-1013
▁diŋitan	-1014
▁tokorju	-1015
▁tukwaje	-1016
▁katodinök	-1017
▁tukwörien	-1018
böŋ	-1019
mue	-1020
orwe	-1021
ugga	-1022
ulöm	-1023
▁Pon	-1024
▁tol	-1025
▁pajo	-1026
▁Iŋkoi	-1027
▁rorwe	-1028
▁nyömue	-1029
▁tinate	-1030
ta	-1031
wön	-1032
ddye	-1033
usen	-1034
▁mia	-1035
unyar	-1036
▁doto	-1037
▁jupu	-1038
▁momo	-1039
arikin	-1040
▁gulöm	-1041
▁maman	-1042
▁sondi	-1043
▁titin	-1044
▁gworoŋ	-1045
▁mukanat	-1046
ir	-1047
pe	-1048
len	-1049
▁Ie	-1050
doro	-1051
ulin	-1052
▁ake	-1053
▁bot	-1054
▁pon	-1055
deggi	-1056
dogga	-1057
▁Lele	-1058
▁mete	-1059
▁tito	-1060
▁Maria	-1061
▁kuIya	-1062
▁lwökö	-1063
▁nyesi	-1064
▁yiyin	-1065
▁kalyöŋ	-1066
▁lwöggu	-1067
dumundye	-1068
▁kadijik	-1069
▁gwiliŋit	-1070
▁kitakindya	-1071
▁?	-1072
jar	-1073
let	-1074
ula	-1075
uma	-1076
yun	-1077
▁pö	-1078
▁ajo	-1079
▁rur	-1080
lesen	-1081
▁abur	-1082
▁karu	-1083
▁midi	-1084
▁mörö	-1085
▁yidin	-1086
▁yeyeji	-1087
▁Katodin	-1088
▁kitajin	-1089
▁kulyari	-1090
▁rerenya	-1091
bbu	-1092
bot	-1093
ria	-1094
▁Ki	-1095
▁wiw	-1096
akine	-1097
▁logo	-1098
▁löti	-1099
▁toju	-1100
▁wara	-1101
▁lobot	-1102
▁pukun	-1103
▁Pilato	-1104
▁jondya	-1105
▁kutusen	-1106
▁mulökötyo	-1107
▁sunyundyö	-1108
atu	-1109
eta	-1110
mbi	-1111
akap	-1112
uŋöt	-1113
▁Ero	-1114
▁put	-1115
▁won	-1116
yöŋgu	-1117
▁lyan	-1118
▁wuji	-1119
dupiet	-1120
▁bulet	-1121
▁dakap	-1122
▁lokoŋ	-1123
▁swötön	-1124
▁jamakin	-1125
▁kweyesi	-1126
▁kölökin	-1127
▁rereket	-1128
▁nyanyara	-1129
▁Katodinönit	-1130
eo	-1131
ra	-1132
kia	-1133
lak	-1134
yöl	-1135
▁Ŋo	-1136
baka	-1137
▁jaja	-1138
▁koke	-1139
dindya	-1140
dokesi	-1141
▁gwulu	-1142
▁jukin	-1143
▁jurak	-1144
▁kikit	-1145
▁lomun	-1146
▁sarju	-1147
▁teŋgu	-1148
▁ŋurupö	-1149
▁köbuŋöt	-1150
▁piritön	-1151
▁ŋurupit	-1152
▁yiyiniki	-1153
▁ŋarundya	-1154
▁merenyejin	-1155
ös	-1156
mbo	-1157
▁lul	-1158
▁mir	-1159
öröni	-1160
▁dene	-1161
▁loŋe	-1162
▁mere	-1163
isajin	-1164
yundya	-1165
▁kasar	-1166
▁lombo	-1167
▁wiwin	-1168
▁Pilipo	-1169
▁kwekwe	-1170
▁waraga	-1171
▁katoron	-1172
▁melesen	-1173
▁milyeju	-1174
▁tuparan	-1175
▁konakindya	-1176
eto	-1177
leŋ	-1178
min	-1179
▁re	-1180
▁tur	-1181
bolot	-1182
▁kaŋö	-1183
▁keri	-1184
▁lome	-1185
▁moka	-1186
▁tore	-1187
▁wora	-1188
yölyöŋ	-1189
▁Erode	-1190
▁iŋkoi	-1191
▁körju	-1192
▁merok	-1193
▁ropet	-1194
▁takin	-1195
▁wuröki	-1196
▁Kiloloŋ	-1197
▁jujukin	-1198
▁tomurek	-1199
▁nyakwariat	-1200
ake	-1201
dani	-1202
ukun	-1203
▁Bar	-1204
▁Köl	-1205
▁jöl	-1206
▁mun	-1207
wörin	-1208
▁kepo	-1209
▁koko	-1210
▁möri	-1211
▁yöŋö	-1212
dakine	-1213
▁somot	-1214
▁woŋon	-1215
▁yubbe	-1216
▁kwörin	-1217
▁yitöni	-1218
▁tetendya	-1219
▁ambatajin	-1220
▁ludukötyo	-1221
del	-1222
isi	-1223
jit	-1224
mbu	-1225
rje	-1226
▁Po	-1227
▁To	-1228
boro	-1229
doke	-1230
▁ŋun	-1231
dudwö	-1232
yanit	-1233
▁gwör	-1234
▁pipi	-1235
▁toko	-1236
▁yeŋe	-1237
▁bandu	-1238
▁moggi	-1239
▁ŋiörö	-1240
▁kokona	-1241
▁nyomot	-1242
▁worani	-1243
▁lyölyöŋ	-1244
▁nyönyök	-1245
▁milyekin	-1246
▁torondya	-1247
▁tulyöŋgu	-1248
bal	-1249
wut	-1250
▁Ŋa	-1251
daki	-1252
diko	-1253
jönö	-1254
yene	-1255
▁köp	-1256
▁mom	-1257
▁nag	-1258
atani	-1259
balaŋ	-1260
örösi	-1261
▁Kode	-1262
▁najo	-1263
▁nyöm	-1264
▁tiju	-1265
buruki	-1266
▁kaden	-1267
▁lyöŋi	-1268
▁mörju	-1269
▁nakwe	-1270
▁yendu	-1271
ukindye	-1272
wökönit	-1273
▁sörösi	-1274
▁midijik	-1275
▁tomoret	-1276
▁kalyöŋök	-1277
▁kanisajin	-1278
▁5	-1279
▁ö	-1280
gwi	-1281
ilö	-1282
jip	-1283
ora	-1284
riŋ	-1285
uka	-1286
une	-1287
▁ra	-1288
▁wo	-1289
▁yo	-1290
bure	-1291
depa	-1292
jinö	-1293
▁Kal	-1294
▁Kwe	-1295
▁Mor	-1296
▁pur	-1297
▁saa	-1298
▁öpu	-1299
osepa	-1300
▁Ejip	-1301
▁lwak	-1302
▁tete	-1303
burönö	-1304
▁Iogon	-1305
▁jondi	-1306
▁mogga	-1307
▁naron	-1308
▁yemba	-1309
▁Yosepa	-1310
▁rereka	-1311
▁ködudwö	-1312
▁pupurja	-1313
▁kaŋöönit	-1314
▁todinesi	-1315
▁Kalwökönit	-1316
▁temakindya	-1317
▁;	-1318
öbi	-1319
▁Me	-1320
done	-1321
oŋga	-1322
rika	-1323
wökö	-1324
ösur	-1325
beleŋ	-1326
moteo	-1327
yuret	-1328
▁Kais	-1329
▁dara	-1330
▁dena	-1331
▁kije	-1332
▁tugw	-1333
▁katok	-1334
▁pipin	-1335
▁ryeju	-1336
▁twana	-1337
▁twöji	-1338
▁yuyuk	-1339
▁Satani	-1340
▁kikita	-1341
▁lalaju	-1342
▁lilija	-1343
▁toŋiju	-1344
▁Ejipeto	-1345
▁Timoteo	-1346
▁dumalak	-1347
▁jurakan	-1348
▁yeyeŋon	-1349
▁jakindya	-1350
▁kukujönö	-1351
▁lomerika	-1352
▁wukindya	-1353
▁kötumitön	-1354
▁sarakindya	-1355
bbi	-1356
eke	-1357
oni	-1358
yem	-1359
▁Gw	-1360
▁Ye	-1361
▁gi	-1362
▁Iti	-1363
▁mag	-1364
▁man	-1365
▁mon	-1366
▁tat	-1367
▁top	-1368
▁wök	-1369
doket	-1370
▁Amin	-1371
▁Yisa	-1372
▁kati	-1373
▁kuru	-1374
▁poki	-1375
▁toro	-1376
▁wöki	-1377
▁yöbu	-1378
▁kaser	-1379
burönök	-1380
▁konaki	-1381
▁kwekin	-1382
▁nyarji	-1383
▁tetena	-1384
▁wöröni	-1385
▁Kölumbö	-1386
▁gwoloŋe	-1387
▁kwakwas	-1388
▁wiwinya	-1389
▁yitwene	-1390
▁tetenaki	-1391
▁nyömuejin	-1392
▁sarakindye	-1393
lin	-1394
sik	-1395
öji	-1396
▁Se	-1397
▁as	-1398
dara	-1399
deke	-1400
ilik	-1401
jore	-1402
riku	-1403
▁mar	-1404
▁sop	-1405
delya	-1406
ikiki	-1407
▁Barn	-1408
▁Make	-1409
▁bula	-1410
▁molu	-1411
yundye	-1412
▁morja	-1413
▁rugge	-1414
durökin	-1415
▁köjinö	-1416
▁ropaki	-1417
▁tokuru	-1418
▁kikolin	-1419
▁luŋösur	-1420
▁tetendi	-1421
▁lwölwökö	-1422
▁tomusala	-1423
baŋ	-1424
ere	-1425
gir	-1426
ikö	-1427
lan	-1428
mia	-1429
▁us	-1430
dela	-1431
idio	-1432
möni	-1433
▁lui	-1434
▁wow	-1435
▁wuk	-1436
burön	-1437
doggi	-1438
öidio	-1439
▁asut	-1440
▁kilu	-1441
▁loko	-1442
▁tomi	-1443
▁tutu	-1444
▁usur	-1445
▁yema	-1446
umuluk	-1447
▁gweja	-1448
▁julin	-1449
▁kenia	-1450
▁kweya	-1451
▁magor	-1452
▁moran	-1453
▁mödir	-1454
▁mömön	-1455
▁radan	-1456
▁ruggö	-1457
▁temba	-1458
▁wulwe	-1459
▁wökön	-1460
▁yenet	-1461
▁batisa	-1462
▁dyadya	-1463
▁kölöki	-1464
▁lwökit	-1465
▁rurwan	-1466
▁suluet	-1467
▁ŋunyen	-1468
▁Barnaba	-1469
▁Kulyaet	-1470
▁kepoddi	-1471
▁mamandi	-1472
▁sasanya	-1473
▁lomunyak	-1474
▁kamumuluk	-1475
▁kwakwaddi	-1476
▁löpukundyö	-1477
ka	-1478
ano	-1479
diŋ	-1480
pen	-1481
tet	-1482
tio	-1483
ugu	-1484
uni	-1485
wet	-1486
yal	-1487
yiŋ	-1488
▁be	-1489
guya	-1490
itun	-1491
malu	-1492
▁jok	-1493
▁kip	-1494
▁laŋ	-1495
▁nya	-1496
donia	-1497
duŋet	-1498
geleŋ	-1499
ökine	-1500
▁lulu	-1501
▁lwön	-1502
▁lyaŋ	-1503
▁toli	-1504
▁toru	-1505
tumalu	-1506
▁Iepeŋ	-1507
▁kweki	-1508
▁likin	-1509
▁lwaka	-1510
▁togwi	-1511
▁wulun	-1512
▁Yisaya	-1513
▁konani	-1514
▁loguya	-1515
▁luköbi	-1516
▁pömöni	-1517
▁laundya	-1518
▁togeleŋ	-1519
▁Soŋinana	-1520
▁Makedonia	-1521
▁lyölyöŋön	-1522
▁momorundye	-1523
▁tukökindyö	-1524
eno	-1525
▁bö	-1526
▁ji	-1527
▁pe	-1528
▁ŋö	-1529
biki	-1530
wöyö	-1531
▁Gwe	-1532
▁wuw	-1533
orone	-1534
▁Roma	-1535
▁möji	-1536
▁weja	-1537
▁ŋaju	-1538
dokeno	-1539
▁Meddi	-1540
▁gwine	-1541
▁kijit	-1542
▁koloŋ	-1543
▁pipil	-1544
▁temet	-1545
▁welet	-1546
▁yiyiŋ	-1547
▁putesi	-1548
▁yeyeet	-1549
▁kasarak	-1550
▁katwöyö	-1551
▁komonye	-1552
▁pupurje	-1553
▁tutuŋgö	-1554
▁kotumalu	-1555
▁momoresi	-1556
▁todindye	-1557
▁kwekindye	-1558
▁katoronyak	-1559
▁konakindye	-1560
▁tokukindyö	-1561
▁tukökindye	-1562
▁kamumulukak	-1563
mi	-1564
dug	-1565
ito	-1566
lon	-1567
▁Ar	-1568
riki	-1569
öŋgi	-1570
▁Pas	-1571
▁kök	-1572
▁rum	-1573
eitun	-1574
munit	-1575
▁Duma	-1576
▁Sama	-1577
▁budu	-1578
▁kape	-1579
▁kopo	-1580
▁koŋe	-1581
▁leta	-1582
▁liwa	-1583
▁meme	-1584
▁ryok	-1585
dorone	-1586
duddyö	-1587
▁buker	-1588
▁dirje	-1589
▁korja	-1590
▁sonyo	-1591
▁Pasaka	-1592
▁kindya	-1593
▁mumuluk	-1594
▁möriesi	-1595
▁toberon	-1596
▁wurökin	-1597
▁ŋoŋoŋga	-1598
▁lombojin	-1599
▁kölökindye	-1600
daŋ	-1601
eso	-1602
iko	-1603
yuk	-1604
▁So	-1605
▁Eli	-1606
▁Iiŋ	-1607
▁tot	-1608
iddya	-1609
wutön	-1610
önöni	-1611
▁gilö	-1612
▁jölö	-1613
▁paji	-1614
▁toyi	-1615
▁wuki	-1616
▁Ŋine	-1617
bikiki	-1618
jareta	-1619
urutat	-1620
▁gwien	-1621
▁kalup	-1622
▁kayem	-1623
▁kusan	-1624
▁lwönö	-1625
▁sarji	-1626
▁sunyu	-1627
▁sörji	-1628
▁ŋarju	-1629
burönit	-1630
ikindyö	-1631
▁jokaki	-1632
▁miriku	-1633
▁pitöki	-1634
▁tunyar	-1635
▁woŋoro	-1636
▁yiniki	-1637
▁löpugge	-1638
▁renyani	-1639
▁rukökin	-1640
▁titindu	-1641
▁towutön	-1642
▁Najareta	-1643
▁kinyojin	-1644
▁lupudiet	-1645
▁wulundyö	-1646
▁kayemanit	-1647
▁mumulugga	-1648
▁gubakindye	-1649
▁jamakindye	-1650
▁wurökindyö	-1651
▁tokurukindyö	-1652
De	-1653
ena	-1654
usu	-1655
▁Ep	-1656
▁sö	-1657
▁wa	-1658
ania	-1659
orok	-1660
pala	-1661
upir	-1662
urun	-1663
▁Bet	-1664
▁duk	-1665
▁dul	-1666
▁gon	-1667
▁gur	-1668
▁pöt	-1669
▁yan	-1670
▁yul	-1671
sikan	-1672
uŋwan	-1673
öjine	-1674
▁gaga	-1675
▁gugu	-1676
▁nyök	-1677
▁paju	-1678
▁woŋe	-1679
enyesi	-1680
kwelen	-1681
▁Kulye	-1682
▁kugga	-1683
▁mörji	-1684
▁pipit	-1685
▁waddu	-1686
▁wurjö	-1687
duŋönit	-1688
▁bulöni	-1689
▁dotoet	-1690
▁kitani	-1691
▁kitari	-1692
▁puköki	-1693
▁tatatu	-1694
▁tokuje	-1695
▁yapala	-1696
▁Samaria	-1697
▁momorji	-1698
▁mömöndu	-1699
▁riŋitön	-1700
▁tokorji	-1701
▁yinikin	-1702
▁kujönöni	-1703
▁luŋundye	-1704
▁nyömöddi	-1705
duŋökindyö	-1706
▁kwörinikö	-1707
▁jamakindya	-1708
▁komoŋsikan	-1709
▁kajujumunit	-1710
Ie	-1711
uI	-1712
dök	-1713
iti	-1714
lön	-1715
mas	-1716
oko	-1717
sia	-1718
ugw	-1719
upu	-1720
utu	-1721
▁Ke	-1722
▁La	-1723
▁Pi	-1724
alan	-1725
ityo	-1726
ökur	-1727
▁Iye	-1728
▁dik	-1729
▁gum	-1730
▁köm	-1731
▁lur	-1732
▁mum	-1733
▁ŋaŋ	-1734
deket	-1735
duggö	-1736
isimo	-1737
uönit	-1738
yaddi	-1739
▁Taki	-1740
▁kayu	-1741
▁kure	-1742
▁kwen	-1743
▁lege	-1744
▁roro	-1745
▁taki	-1746
▁toyu	-1747
▁wöri	-1748
▁yapa	-1749
akaria	-1750
tiokia	-1751
▁Epeso	-1752
▁Kweja	-1753
▁Saula	-1754
▁böbön	-1755
▁bökur	-1756
▁gwörö	-1757
▁kaine	-1758
▁kebbu	-1759
▁kelan	-1760
▁kemia	-1761
▁kukut	-1762
▁kupir	-1763
▁ririŋ	-1764
▁togir	-1765
▁toruk	-1766
▁yuyup	-1767
▁yöyöŋ	-1768
beleŋgu	-1769
▁Kaisar	-1770
▁Yisaka	-1771
▁buŋwan	-1772
▁denesi	-1773
▁marate	-1774
▁nagusu	-1775
▁nyenye	-1776
▁tatuje	-1777
▁tomijö	-1778
▁tudara	-1779
▁ŋoŋesi	-1780
dumundya	-1781
▁gubaddi	-1782
▁karakin	-1783
▁konakin	-1784
▁lilimön	-1785
▁moraddi	-1786
▁moraddu	-1787
▁sasandu	-1788
dekarikin	-1789
▁Antiokia	-1790
▁kwörinit	-1791
▁piyundya	-1792
▁rerenyesi	-1793
▁kwakwasesi	-1794
▁mirakindya	-1795
▁pitökindyö	-1796
bbö	-1797
gge	-1798
ike	-1799
joŋ	-1800
per	-1801
twö	-1802
upö	-1803
yat	-1804
yon	-1805
yöm	-1806
▁14	-1807
▁42	-1808
▁44	-1809
▁ŋe	-1810
anan	-1811
bori	-1812
buru	-1813
giri	-1814
ilan	-1815
itan	-1816
iŋit	-1817
mukö	-1818
▁lai	-1819
bojin	-1820
kityo	-1821
urwan	-1822
yunit	-1823
▁Sila	-1824
▁dili	-1825
▁goro	-1826
▁kömu	-1827
▁lawe	-1828
▁liki	-1829
▁lipo	-1830
▁munu	-1831
▁rupu	-1832
▁topu	-1833
▁yitö	-1834
▁ŋaji	-1835
boroja	-1836
dumaji	-1837
maseke	-1838
ukunit	-1839
▁Kaper	-1840
▁Saret	-1841
▁baran	-1842
▁jajam	-1843
▁kokor	-1844
▁lilik	-1845
▁momok	-1846
▁rekin	-1847
▁riŋet	-1848
▁rorop	-1849
▁tolup	-1850
▁wuryö	-1851
▁yulön	-1852
▁ŋerja	-1853
▁Yeyene	-1854
▁gubara	-1855
▁jamaki	-1856
▁kendya	-1857
▁lyaŋan	-1858
▁pötwör	-1859
▁ruddya	-1860
▁saraki	-1861
▁sunyun	-1862
▁sömukö	-1863
▁gweyari	-1864
▁gworolo	-1865
▁kukurun	-1866
▁lyöŋesi	-1867
▁riköddu	-1868
▁sarakin	-1869
▁ŋoŋaddu	-1870
▁Damaseke	-1871
▁batiddya	-1872
▁batisimo	-1873
▁denundya	-1874
▁katwöyök	-1875
▁kukutörö	-1876
▁lupundye	-1877
▁mönundye	-1878
▁pipindye	-1879
▁tudaraju	-1880
▁wöröjine	-1881
▁gweyundya	-1882
▁kasaranit	-1883
▁pipilundya	-1884
▁ropakindya	-1885
▁sopakindye	-1886
▁Yudayakityo	-1887
▁katoronyanit	-1888
▁nyönyökökindye	-1889
öp	-1890
▁6	-1891
aet	-1892
alo	-1893
dut	-1894
gwe	-1895
uti	-1896
▁33	-1897
▁Gi	-1898
▁Ya	-1899
▁ŋu	-1900
arin	-1901
arju	-1902
atyo	-1903
diet	-1904
doni	-1905
döri	-1906
gwuŋ	-1907
lesi	-1908
ulya	-1909
uruk	-1910
uröt	-1911
wene	-1912
▁Adi	-1913
▁gig	-1914
▁gir	-1915
▁gor	-1916
▁gub	-1917
▁loŋ	-1918
▁mam	-1919
▁rwö	-1920
▁tem	-1921
▁ŋiŋ	-1922
▁ŋol	-1923
doggu	-1924
durjö	-1925
gelok	-1926
gwora	-1927
ilili	-1928
uluja	-1929
▁Asia	-1930
▁Turo	-1931
▁kiŋa	-1932
▁mwön	-1933
▁nago	-1934
▁puku	-1935
▁pödö	-1936
▁tolu	-1937
▁wone	-1938
▁yuyu	-1939
▁ŋari	-1940
anauma	-1941
boroji	-1942
wakwas	-1943
▁Rombi	-1944
▁kitun	-1945
▁kujöŋ	-1946
▁köpuk	-1947
▁madaŋ	-1948
▁mariŋ	-1949
▁möndu	-1950
▁sondu	-1951
▁tolut	-1952
▁totok	-1953
▁totop	-1954
▁tugge	-1955
▁yandu	-1956
▁yemet	-1957
▁yukan	-1958
dumaddu	-1959
▁Suluja	-1960
▁bubula	-1961
▁diköri	-1962
▁gulömö	-1963
▁jamesi	-1964
▁karyak	-1965
▁keriat	-1966
▁kidoni	-1967
▁kukuji	-1968
▁merete	-1969
▁pitönö	-1970
▁rugwuŋ	-1971
▁tikine	-1972
▁toyiyi	-1973
▁twötwö	-1974
▁yiŋani	-1975
▁yukaet	-1976
▁ŋaraki	-1977
dikindya	-1978
▁jajambu	-1979
▁kakuruk	-1980
▁kölöddi	-1981
▁legelok	-1982
▁lwököni	-1983
▁pupukun	-1984
▁titikin	-1985
▁todelya	-1986
▁tukökin	-1987
▁gweyajin	-1988
▁lomunyan	-1989
▁yuŋundyö	-1990
durökindye	-1991
▁luŋösurök	-1992
▁sasanyesi	-1993
▁tetenakin	-1994
▁torukökin	-1995
▁Kaperanauma	-1996
▁katodinönit	-1997
▁nakwekwelen	-1998
sa	-1999
▁,	-2000
bit	-2001
ien	-2002
ita	-2003
jön	-2004
kan	-2005
ota	-2006
ugi	-2007
ule	-2008
uri	-2009
▁11	-2010
▁30	-2011
▁36	-2012
▁50	-2013
▁Ga	-2014
▁Te	-2015
▁bo	-2016
▁oŋ	-2017
▁tw	-2018
doko	-2019
döju	-2020
eten	-2021
itöt	-2022
mönö	-2023
tesi	-2024
unyi	-2025
unyu	-2026
wute	-2027
yura	-2028
▁Ada	-2029
▁Kat	-2030
▁Kor	-2031
▁Kur	-2032
▁Tuk	-2033
▁gwö	-2034
▁jin	-2035
▁kik	-2036
▁pik	-2037
▁toj	-2038
daesi	-2039
debbi	-2040
lanit	-2041
rigwo	-2042
unyan	-2043
▁IeIe	-2044
▁Kepa	-2045
▁Tiji	-2046
▁bubu	-2047
▁kala	-2048
▁kare	-2049
▁keju	-2050
▁kinu	-2051
▁kudu	-2052
▁mana	-2053
▁muda	-2054
▁mukö	-2055
▁pori	-2056
▁rome	-2057
▁sara	-2058
▁sisi	-2059
▁tulö	-2060
▁wale	-2061
▁yiŋa	-2062
▁yuku	-2063
▁yöki	-2064
▁ŋode	-2065
▁Diŋit	-2066
▁Eliya	-2067
▁budök	-2068
▁dendi	-2069
▁jaran	-2070
▁kweni	-2071
▁matat	-2072
▁miret	-2073
▁mokot	-2074
▁muggö	-2075
▁rumön	-2076
▁tomie	-2077
▁waran	-2078
▁wöriŋ	-2079
▁yeyen	-2080
▁ŋaŋar	-2081
▁ŋoŋgi	-2082
metanit	-2083
▁Giriki	-2084
▁Kunyar	-2085
▁burugi	-2086
▁kanyöm	-2087
▁katatu	-2088
▁kawute	-2089
▁kukuju	-2090
▁luŋuni	-2091
▁miajin	-2092
▁momoro	-2093
▁pilili	-2094
▁pipije	-2095
▁pupura	-2096
▁riŋari	-2097
▁ruköki	-2098
▁tetema	-2099
▁toduma	-2100
▁wuddya	-2101
▁wulöki	-2102
▁Ŋwajik	-2103
▁ŋiŋien	-2104
▁dedelya	-2105
▁kapepen	-2106
▁kiyaddi	-2107
▁köpuröt	-2108
▁lokoyok	-2109
▁oŋgwora	-2110
▁tokujön	-2111
▁ŋolitan	-2112
▁Kaisaria	-2113
▁kurundyö	-2114
▁luŋundya	-2115
▁lwöŋöddi	-2116
▁tomunyan	-2117
▁totopine	-2118
▁wuyundye	-2119
▁gwörundyö	-2120
▁katokorok	-2121
▁kulyajine	-2122
▁kwekwekin	-2123
▁todelyaju	-2124
▁kitakindye	-2125
▁morakindya	-2126
▁ŋarakindye	-2127
ea	-2128
iI	-2129
oa	-2130
wi	-2131
Ieŋ	-2132
iru	-2133
kön	-2134
tor	-2135
▁13	-2136
▁15	-2137
▁16	-2138
▁31	-2139
▁35	-2140
▁40	-2141
▁Ge	-2142
▁ge	-2143
doka	-2144
doŋe	-2145
duru	-2146
duŋö	-2147
gano	-2148
iabe	-2149
mara	-2150
ulök	-2151
utöt	-2152
wesi	-2153
yapa	-2154
▁Apo	-2155
▁Kab	-2156
▁Mar	-2157
▁Nat	-2158
▁jik	-2159
▁jwe	-2160
▁lom	-2161
▁min	-2162
▁naŋ	-2163
▁tow	-2164
▁twa	-2165
▁yaŋ	-2166
▁ŋor	-2167
bejin	-2168
dirön	-2169
duŋge	-2170
lonit	-2171
uturu	-2172
welen	-2173
wönin	-2174
yarju	-2175
ököti	-2176
▁Toma	-2177
▁Yona	-2178
▁bara	-2179
▁gine	-2180
▁joŋa	-2181
▁koro	-2182
▁kupö	-2183
▁körö	-2184
▁limu	-2185
▁mama	-2186
▁mien	-2187
▁mono	-2188
▁rigw	-2189
▁tuka	-2190
▁weki	-2191
▁wusa	-2192
▁wuwu	-2193
▁öpuö	-2194
▁Koane	-2195
▁Munyi	-2196
▁Teten	-2197
▁Yöŋgi	-2198
▁batis	-2199
▁gweye	-2200
▁gwögw	-2201
▁gwöri	-2202
▁kabul	-2203
▁kakit	-2204
▁kegga	-2205
▁kijek	-2206
▁kipya	-2207
▁kiyaŋ	-2208
▁loloŋ	-2209
▁lulur	-2210
▁lwöki	-2211
▁morin	-2212
▁möndi	-2213
▁tembi	-2214
▁tikön	-2215
▁tomon	-2216
▁yendi	-2217
dokejin	-2218
ganojin	-2219
▁Kayapa	-2220
▁dwönin	-2221
▁jeitun	-2222
▁kadoŋe	-2223
▁kanyar	-2224
▁luluje	-2225
▁lulujö	-2226
▁lwöŋgu	-2227
▁memeta	-2228
▁rigiri	-2229
▁tojore	-2230
▁topuök	-2231
▁yeyene	-2232
dikindye	-2233
▁kalyöŋi	-2234
▁milyeji	-2235
▁rimajin	-2236
▁titinti	-2237
▁tojulin	-2238
▁tokoyok	-2239
▁twatwan	-2240
▁ŋariesi	-2241
▁Kulyaesi	-2242
▁bandujin	-2243
▁dulakine	-2244
▁karyakak	-2245
▁kusanjin	-2246
▁lokundya	-2247
▁nyakwari	-2248
▁pakindya	-2249
▁puputuru	-2250
▁todiniki	-2251
▁tokoanan	-2252
▁tokwelen	-2253
▁topurwan	-2254
▁wukundyö	-2255
▁yeŋundya	-2256
▁ŋökindyö	-2257
bukökindye	-2258
depakindya	-2259
▁Sadokejin	-2260
▁kakwakwas	-2261
▁kayukunit	-2262
▁kayupönit	-2263
▁nyönyöggi	-2264
▁todinikin	-2265
▁jupukindya	-2266
▁kaserököti	-2267
▁mumulukesi	-2268
▁putukindye	-2269
▁ropakindye	-2270
▁sopakindya	-2271
▁rugwuŋökine	-2272
▁ryokakindya	-2273
▁tetenakindya	-2274
▁toyiyikindyö	-2275
Io	-2276
ŋa	-2277
abe	-2278
aji	-2279
dar	-2280
gar	-2281
iya	-2282
iŋa	-2283
sek	-2284
wöt	-2285
▁23	-2286
▁34	-2287
▁43	-2288
▁El	-2289
▁Ku	-2290
▁Ri	-2291
▁wö	-2292
bitö	-2293
ddyö	-2294
disi	-2295
erak	-2296
etep	-2297
kaya	-2298
oŋgi	-2299
ujar	-2300
uria	-2301
örit	-2302
▁Kon	-2303
▁Mer	-2304
▁Per	-2305
▁Tin	-2306
▁bab	-2307
▁bar	-2308
▁bir	-2309
▁din	-2310
▁joj	-2311
▁jor	-2312
▁kek	-2313
▁lak	-2314
▁löm	-2315
▁mur	-2316
▁peŋ	-2317
▁suk	-2318
▁wak	-2319
▁waŋ	-2320
▁yat	-2321
▁ŋan	-2322
abela	-2323
akwan	-2324
asona	-2325
boria	-2326
buker	-2327
dumba	-2328
dumun	-2329
döria	-2330
ilötu	-2331
iŋwan	-2332
jityo	-2333
laddu	-2334
ukwön	-2335
uröki	-2336
yaggu	-2337
yitwe	-2338
öŋöni	-2339
▁Böŋö	-2340
▁Kulo	-2341
▁Lewi	-2342
▁Lyöŋ	-2343
▁Maga	-2344
▁Solo	-2345
▁Tito	-2346
▁bata	-2347
▁kela	-2348
▁kena	-2349
▁kidi	-2350
▁kolo	-2351
▁kuun	-2352
▁lopi	-2353
▁nanu	-2354
▁ndya	-2355
▁niŋa	-2356
▁sese	-2357
▁tiji	-2358
▁titi	-2359
▁wowo	-2360
▁yawa	-2361
▁yiyi	-2362
▁ŋaki	-2363
dyakan	-2364
oŋanit	-2365
ulyaki	-2366
ulönit	-2367
▁Akaya	-2368
▁Andar	-2369
▁Geena	-2370
▁Karin	-2371
▁Ködyö	-2372
▁Mörji	-2373
▁Pirit	-2374
▁Setep	-2375
▁boŋgi	-2376
▁gelun	-2377
▁gorom	-2378
▁gumbe	-2379
▁gwugw	-2380
▁karya	-2381
▁kenet	-2382
▁kikwa	-2383
▁liabe	-2384
▁lubbö	-2385
▁luŋwe	-2386
▁mandi	-2387
▁munuö	-2388
▁parar	-2389
▁pepen	-2390
▁pisek	-2391
▁riŋge	-2392
▁tawer	-2393
▁topuk	-2394
▁turön	-2395
▁tutuk	-2396
▁wuggö	-2397
▁yiŋun	-2398
▁yokia	-2399
▁yöŋgi	-2400
duŋökin	-2401
enyejin	-2402
ikindye	-2403
moranit	-2404
▁Anania	-2405
▁Babela	-2406
▁gubaji	-2407
▁jujuje	-2408
▁kindye	-2409
▁kukuka	-2410
▁kukwön	-2411
▁kwelen	-2412
▁kömiru	-2413
▁lilije	-2414
▁lomore	-2415
▁luitöt	-2416
▁margar	-2417
▁nyaret	-2418
▁nyöggu	-2419
▁pipija	-2420
▁rikörö	-2421
▁tokuki	-2422
▁totoku	-2423
▁tutule	-2424
▁wöröji	-2425
▁ŋedepa	-2426
▁ŋodeki	-2427
▁böböndu	-2428
▁gwuluet	-2429
▁kabulak	-2430
▁kakarju	-2431
▁kalupök	-2432
▁katiyuk	-2433
▁kepoddu	-2434
▁kokobbu	-2435
▁lurutat	-2436
▁mödöria	-2437
▁pitökin	-2438
▁pukökin	-2439
▁purutat	-2440
▁teteyon	-2441
▁tobuker	-2442
▁toiŋwan	-2443
▁tojubbi	-2444
▁torigwo	-2445
▁totodin	-2446
▁wulökin	-2447
▁yiyitwe	-2448
▁yuyuggö	-2449
▁Setepano	-2450
▁Solomona	-2451
▁gigilötu	-2452
▁jakindye	-2453
▁kanyömök	-2454
▁lokukwön	-2455
▁lulurara	-2456
▁lwöŋöddu	-2457
▁lyölyöŋi	-2458
▁momoroju	-2459
▁nyenyesu	-2460
▁pipindya	-2461
▁rigirigi	-2462
▁toluddya	-2463
▁tugwörji	-2464
▁tugwörju	-2465
▁ŋarundye	-2466
▁Kabulönit	-2467
▁Katoŋanit	-2468
▁gwogwoloŋ	-2469
▁katiyunit	-2470
▁kolojityo	-2471
▁lwökundyö	-2472
▁tokulyaki	-2473
▁wiwinyesi	-2474
▁Merenyejin	-2475
▁katokuönit	-2476
▁ködudwölön	-2477
▁löpukundye	-2478
▁wurökindye	-2479
▁katomoranit	-2480
▁tetemakindya	-2481
▁nyönyökökindyö	-2482
Ia	-2483
dI	-2484
ali	-2485
bat	-2486
dor	-2487
doŋ	-2488
gwö	-2489
lio	-2490
mak	-2491
moŋ	-2492
odi	-2493
oto	-2494
pat	-2495
rio	-2496
rja	-2497
ryö	-2498
uji	-2499
yor	-2500
▁20	-2501
▁21	-2502
▁26	-2503
▁32	-2504
▁41	-2505
▁45	-2506
▁51	-2507
▁Am	-2508
▁ba	-2509
▁du	-2510
arak	-2511
atia	-2512
bili	-2513
dala	-2514
depe	-2515
duki	-2516
dwat	-2517
ilyö	-2518
isab	-2519
kise	-2520
muka	-2521
riri	-2522
ugun	-2523
unit	-2524
yure	-2525
▁Ana	-2526
▁Iuŋ	-2527
▁Twö	-2528
▁baŋ	-2529
▁dak	-2530
▁dyö	-2531
▁got	-2532
▁kaw	-2533
▁lik	-2534
▁mak	-2535
▁san	-2536
▁sös	-2537
▁tan	-2538
▁tun	-2539
▁ŋai	-2540
▁ŋöi	-2541
araba	-2542
atatu	-2543
biyet	-2544
böŋön	-2545
dikin	-2546
dotet	-2547
eleme	-2548
oroja	-2549
otyaŋ	-2550
yoggi	-2551
▁Isik	-2552
▁Kape	-2553
▁Köji	-2554
▁Mele	-2555
▁Nebi	-2556
▁Nene	-2557
▁Paro	-2558
▁baba	-2559
▁dyaŋ	-2560
▁gala	-2561
▁goma	-2562
▁gure	-2563
▁keke	-2564
▁kiIo	-2565
▁kuyu	-2566
▁laka	-2567
▁lupe	-2568
▁mara	-2569
▁mimi	-2570
▁nyei	-2571
▁pape	-2572
▁pete	-2573
▁riri	-2574
▁riŋa	-2575
▁ruru	-2576
▁tata	-2577
▁witi	-2578
▁wore	-2579
▁yoyo	-2580
▁Ŋona	-2581
▁ŋadi	-2582
ariota	-2583
boriet	-2584
dororo	-2585
ilikia	-2586
itajin	-2587
mindya	-2588
odikia	-2589
ululök	-2590
▁Apolo	-2591
▁Kondi	-2592
▁Perok	-2593
▁Suria	-2594
▁Toron	-2595
▁babat	-2596
▁jigge	-2597
▁kator	-2598
▁kobbu	-2599
▁kukun	-2600
▁kurwe	-2601
▁laija	-2602
▁lokwe	-2603
▁luluŋ	-2604
▁meran	-2605
▁metet	-2606
▁mugge	-2607
▁mumut	-2608
▁munyi	-2609
▁murut	-2610
▁piyet	-2611
▁rudwe	-2612
▁teŋon	-2613
▁tirik	-2614
▁towor	-2615
▁toŋot	-2616
▁wurje	-2617
▁yeyeo	-2618
▁ŋandi	-2619
▁ŋirje	-2620
burukin	-2621
delakin	-2622
dumaddi	-2623
golonit	-2624
isabeta	-2625
kisedek	-2626
▁Baraba	-2627
▁Kurete	-2628
▁bodwat	-2629
▁bulani	-2630
▁diniki	-2631
▁kamuka	-2632
▁kiaser	-2633
▁korani	-2634
▁koriri	-2635
▁kuddye	-2636
▁köbilu	-2637
▁köpukö	-2638
▁lwöggi	-2639
▁metani	-2640
▁möröni	-2641
▁ropesi	-2642
▁ruddye	-2643
▁rumara	-2644
▁ryöryö	-2645
▁sanduk	-2646
▁sunyue	-2647
▁todinö	-2648
▁tomiri	-2649
▁toruet	-2650
▁totogo	-2651
▁toyujö	-2652
▁twakin	-2653
▁yöyöŋö	-2654
▁yöŋöni	-2655
bikikine	-2656
gweyanit	-2657
▁Andarea	-2658
▁Kilikia	-2659
▁katujar	-2660
▁kiloloŋ	-2661
▁kupöjin	-2662
▁laundye	-2663
▁lokomoŋ	-2664
▁lulalet	-2665
▁lwölwök	-2666
▁lyaŋesi	-2667
▁milyeki	-2668
▁tatatua	-2669
▁todinet	-2670
▁togirja	-2671
▁tokukin	-2672
▁Beteleme	-2673
▁Laodikia	-2674
▁Magadala	-2675
▁delyaesi	-2676
▁gwöriesi	-2677
▁jujuwesi	-2678
▁kipundyö	-2679
▁kölökine	-2680
▁mimindya	-2681
▁mönundyö	-2682
▁narakwan	-2683
▁pakindye	-2684
▁sonyoddi	-2685
▁tokotyaŋ	-2686
▁tokuöddu	-2687
▁tutunyar	-2688
▁wukindye	-2689
delakindya	-2690
yalakindya	-2691
▁Elisabeta	-2692
▁gwiliŋisi	-2693
▁gwörundye	-2694
▁kamörönit	-2695
▁kwakwaset	-2696
▁nyönyöggu	-2697
▁paganojin	-2698
▁pipitökin	-2699
▁Isikariota	-2700
▁gweyarijin	-2701
▁rukökindye	-2702
▁tolikindyö	-2703
▁tutumatyan	-2704
▁yinikindyö	-2705
▁Melekisedek	-2706
▁kakwakwasak	-2707
▁tukwörienjin	-2708
▁tutuŋökindyö	-2709
▁!	-2710
agw	-2711
bil	-2712
bok	-2713
bun	-2714
iIi	-2715
nit	-2716
uko	-2717
öju	-2718
öru	-2719
▁10	-2720
▁22	-2721
▁24	-2722
▁25	-2723
▁It	-2724
▁Ru	-2725
▁jö	-2726
▁su	-2727
alon	-2728
bula	-2729
dene	-2730
dona	-2731
doto	-2732
dula	-2733
duŋi	-2734
into	-2735
omor	-2736
riko	-2737
ulak	-2738
uŋwe	-2739
wero	-2740
yeji	-2741
yeni	-2742
yoro	-2743
yuni	-2744
öggu	-2745
▁Abi	-2746
▁Kup	-2747
▁Lor	-2748
▁Noa	-2749
▁Tes	-2750
▁Tuŋ	-2751
▁Yar	-2752
▁goŋ	-2753
▁ker	-2754
▁kum	-2755
▁mij	-2756
▁pöl	-2757
▁rus	-2758
▁sos	-2759
▁sus	-2760
▁tum	-2761
▁tök	-2762
▁wat	-2763
▁yak	-2764
buluŋ	-2765
buryo	-2766
dajin	-2767
diesi	-2768
durje	-2769
duruu	-2770
eleje	-2771
meona	-2772
rilön	-2773
yaddu	-2774
yilan	-2775
yuddu	-2776
▁Ales	-2777
▁Gwon	-2778
▁Kawe	-2779
▁Malo	-2780
▁Mere	-2781
▁Nake	-2782
▁Sara	-2783
▁Yapo	-2784
▁dwöt	-2785
▁döru	-2786
▁gwel	-2787
▁kago	-2788
▁kaja	-2789
▁kame	-2790
▁kate	-2791
▁kele	-2792
▁kijo	-2793
▁kiki	-2794
▁kwak	-2795
▁köli	-2796
▁luru	-2797
▁malo	-2798
▁nuka	-2799
▁pura	-2800
▁puri	-2801
▁rara	-2802
▁reki	-2803
▁ryor	-2804
▁sopa	-2805
▁tomo	-2806
▁ture	-2807
anaele	-2808
biddye	-2809
biddyö	-2810
buköki	-2811
delaki	-2812
depaji	-2813
depaki	-2814
dumara	-2815
giruki	-2816
yalaki	-2817
▁Adama	-2818
▁Arona	-2819
▁Gworo	-2820
▁Kinyo	-2821
▁Kölip	-2822
▁Mugun	-2823
▁Siona	-2824
▁Twöji	-2825
▁denet	-2826
▁dirja	-2827
▁doggi	-2828
▁geIeŋ	-2829
▁gogon	-2830
▁gwagw	-2831
▁kakon	-2832
▁keesi	-2833
▁kendi	-2834
▁kobbi	-2835
▁kolak	-2836
▁koret	-2837
▁kurjö	-2838
▁kweji	-2839
▁körit	-2840
▁körji	-2841
▁laŋet	-2842
▁luŋun	-2843
▁mandu	-2844
▁meliŋ	-2845
▁muket	-2846
▁nator	-2847
▁nyara	-2848
▁peddi	-2849
▁riŋga	-2850
▁rurum	-2851
▁sörit	-2852
▁telet	-2853
▁teton	-2854
▁teŋgi	-2855
▁torja	-2856
▁tujar	-2857
▁twane	-2858
▁töggu	-2859
▁wakun	-2860
▁wowon	-2861
▁wulek	-2862
▁yatet	-2863
▁yaŋgo	-2864
▁ŋeret	-2865
alonike	-2866
dokoddi	-2867
oŋundya	-2868
▁Beleje	-2869
▁Konyen	-2870
▁Kuprio	-2871
▁Kölöki	-2872
▁Nyarju	-2873
▁Nyomot	-2874
▁Sidona	-2875
▁Yasona	-2876
▁gubaki	-2877
▁gubani	-2878
▁gugubu	-2879
▁gwigwi	-2880
▁jajama	-2881
▁jujuja	-2882
▁kalaba	-2883
▁kalupe	-2884
▁kelaji	-2885
▁kindyö	-2886
▁kokori	-2887
▁korodo	-2888
▁kotesi	-2889
▁kunyar	-2890
▁kölörö	-2891
▁lalawe	-2892
▁likiki	-2893
▁lojore	-2894
▁lomeri	-2895
▁lupene	-2896
▁lupöri	-2897
▁lyöŋgi	-2898
▁mamana	-2899
▁mindya	-2900
▁mömörö	-2901
▁nyöggi	-2902
▁pelela	-2903
▁purani	-2904
▁riöddi	-2905
▁ryaggu	-2906
▁ryoggi	-2907
▁sukuri	-2908
▁suluwa	-2909
▁togolo	-2910
▁toliki	-2911
▁toluta	-2912
▁totoke	-2913
▁tukara	-2914
▁tuköki	-2915
▁tulyöŋ	-2916
▁tutugw	-2917
▁wuddye	-2918
▁wuröri	-2919
▁yimönö	-2920
▁yökijö	-2921
▁ŋudula	-2922
durundyö	-2923
yakindya	-2924
▁Korinto	-2925
▁Nebijin	-2926
▁Simeona	-2927
▁Yardene	-2928
▁baraddu	-2929
▁delyani	-2930
▁kitaesi	-2931
▁koraddu	-2932
▁kuIyani	-2933
▁kölöddu	-2934
▁kömutöt	-2935
▁mandara	-2936
▁morinet	-2937
▁mömörju	-2938
▁nyenyei	-2939
▁pödöjin	-2940
▁pölilyö	-2941
▁raradan	-2942
▁rigwökö	-2943
▁riköddi	-2944
▁sasandi	-2945
▁toburyo	-2946
▁tomorja	-2947
▁totoggi	-2948
▁tulöddu	-2949
▁tutuŋge	-2950
▁yöyöŋgu	-2951
▁babatatu	-2952
▁diköriöt	-2953
▁gigiruki	-2954
▁jikundyö	-2955
▁katatuak	-2956
▁kokoroja	-2957
▁kwekweni	-2958
▁lupundyö	-2959
▁lwakatyo	-2960
▁meleseno	-2961
▁memeddya	-2962
▁nyenagon	-2963
▁pipitöki	-2964
▁pitundyö	-2965
▁pupuresi	-2966
▁sukindye	-2967
▁tirikwet	-2968
▁tomirian	-2969
▁wulundye	-2970
▁ŋökindye	-2971
bikikindyö	-2972
depakindye	-2973
▁Iuŋasirik	-2974
▁Natanaele	-2975
▁kakitanit	-2976
▁katujarak	-2977
▁loguyajin	-2978
▁maratejin	-2979
▁nagululök	-2980
▁roropakin	-2981
▁tumatyane	-2982
▁wurörikin	-2983
▁ŋaŋarakin	-2984
▁Belejebula	-2985
▁Tesalonike	-2986
▁jupukindye	-2987
▁kanyaranit	-2988
▁katoruönit	-2989
▁katwöyönit	-2990
▁morakindye	-2991
▁temakindye	-2992
▁Katogolonit	-2993
▁kapepenanit	-2994
▁likikirilön	-2995
▁sunyukindye	-2996
▁kokorakindye	-2997
▁margaritajin	-2998
▁pararakindye	-2999
Iö	-3000
io	-3001
na	-3002
op	-3003
alu	-3004
bba	-3005
dwa	-3006
eko	-3007
ese	-3008
eŋe	-3009
jak	-3010
jöl	-3011
lok	-3012
mbö	-3013
nan	-3014
ote	-3015
pul	-3016
pya	-3017
ser	-3018
urö	-3019
utö	-3020
wöl	-3021
ŋgi	-3022
▁12	-3023
▁46	-3024
▁At	-3025
▁Bu	-3026
▁Di	-3027
▁Eb	-3028
▁Er	-3029
▁Ik	-3030
▁Pu	-3031
▁Ra	-3032
▁kw	-3033
abia	-3034
akan	-3035
alia	-3036
arji	-3037
asin	-3038
bere	-3039
bero	-3040
bönö	-3041
daju	-3042
dari	-3043
deja	-3044
dele	-3045
dioŋ	-3046
dita	-3047
doma	-3048
döyö	-3049
enai	-3050
jaro	-3051
lani	-3052
lapa	-3053
nine	-3054
okor	-3055
oŋon	-3056
poni	-3057
poro	-3058
sana	-3059
ukuk	-3060
uruŋ	-3061
utut	-3062
wano	-3063
wöki	-3064
▁Gwo	-3065
▁Kip	-3066
▁Lon	-3067
▁Pur	-3068
▁Rom	-3069
▁Yiŋ	-3070
▁bau	-3071
▁dur	-3072
▁dwa	-3073
▁gwu	-3074
▁jul	-3075
▁koi	-3076
▁koŋ	-3077
▁lil	-3078
▁lot	-3079
▁lti	-3080
▁lya	-3081
▁löl	-3082
▁moŋ	-3083
▁nap	-3084
▁nit	-3085
▁was	-3086
▁wel	-3087
▁yek	-3088
▁yik	-3089
▁yug	-3090
baŋin	-3091
boggi	-3092
butun	-3093
dekta	-3094
enyak	-3095
iddye	-3096
ikesi	-3097
inike	-3098
jakwa	-3099
leleŋ	-3100
nelio	-3101
uŋwök	-3102
wanit	-3103
yeesi	-3104
yurje	-3105
öbiya	-3106
▁Iŋgo	-3107
▁Kala	-3108
▁Kana	-3109
▁Kiko	-3110
▁Kune	-3111
▁Loto	-3112
▁Mana	-3113
▁Niko	-3114
▁Rome	-3115
▁Sala	-3116
▁Sili	-3117
▁Yeŋe	-3118
▁goji	-3119
▁kawu	-3120
▁kuIo	-3121
▁kume	-3122
▁malu	-3123
▁miri	-3124
▁nama	-3125
▁nana	-3126
▁nyon	-3127
▁rume	-3128
▁rune	-3129
▁sasa	-3130
▁seji	-3131
▁sira	-3132
▁toge	-3133
▁togi	-3134
▁tule	-3135
▁wuya	-3136
▁yasi	-3137
▁yiŋe	-3138
▁yoŋe	-3139
▁ŋiun	-3140
▁ŋuti	-3141
abatis	-3142
beleŋo	-3143
dikolo	-3144
dotesi	-3145
dumala	-3146
dupien	-3147
dutesi	-3148
ilityo	-3149
iliyak	-3150
munyak	-3151
oronit	-3152
unyare	-3153
uruŋin	-3154
usityo	-3155
yurani	-3156
öpugge	-3157
örikin	-3158
▁Alapa	-3159
▁Ebele	-3160
▁Ebere	-3161
▁Kaden	-3162
▁Loron	-3163
▁Lyöŋi	-3164
▁Pondi	-3165
▁Turoa	-3166
▁bukön	-3167
▁domba	-3168
▁gelwe	-3169
▁gotet	-3170
▁gugwö	-3171
▁gumba	-3172
▁jakin	-3173
▁jojoŋ	-3174
▁kebbi	-3175
▁kimak	-3176
▁kiyuk	-3177
▁kukuk	-3178
▁kurju	-3179
▁kuörö	-3180
▁kwara	-3181
▁laŋgi	-3182
▁lelya	-3183
▁logga	-3184
▁modoŋ	-3185
▁moken	-3186
▁morju	-3187
▁nakoŋ	-3188
▁nanaŋ	-3189
▁nugga	-3190
▁nyola	-3191
▁piyun	-3192
▁reara	-3193
▁ruket	-3194
▁rurut	-3195
▁ryeni	-3196
▁ryöni	-3197
▁sapya	-3198
▁sugge	-3199
▁toran	-3200
▁torji	-3201
▁toyem	-3202
▁tupet	-3203
▁tutun	-3204
▁twaji	-3205
▁tökit	-3206
▁wilan	-3207
boriani	-3208
dikasin	-3209
dioŋjin	-3210
duundyö	-3211
unyukin	-3212
▁Ambata	-3213
▁Atenai	-3214
▁Italia	-3215
▁Lajaro	-3216
▁Marako	-3217
▁Marata	-3218
▁Mulökö	-3219
▁Sodoma	-3220
▁Tinate	-3221
▁Tukiko	-3222
▁Yeriko	-3223
▁arabia	-3224
▁bulesi	-3225
▁böbönö	-3226
▁dwadwa	-3227
▁gobero	-3228
▁gureki	-3229
▁gwegwe	-3230
▁gwuluŋ	-3231
▁jojoko	-3232
▁jojore	-3233
▁joŋani	-3234
▁kaŋöök	-3235
▁lakani	-3236
▁lalaji	-3237
▁lalaŋa	-3238
▁likiti	-3239
▁loponi	-3240
▁löpukö	-3241
▁memeri	-3242
▁mumulu	-3243
▁munuki	-3244
▁mömöju	-3245
▁nyunyu	-3246
▁nyökwe	-3247
▁pondya	-3248
▁purwat	-3249
▁rukörö	-3250
▁rumöne	-3251
▁rwöddu	-3252
▁tojumu	-3253
▁tokita	-3254
▁tolien	-3255
▁toruje	-3256
▁toŋiji	-3257
▁twayet	-3258
▁wusaji	-3259
▁yiŋesi	-3260
▁yuyukö	-3261
dutundye	-3262
▁Betania	-3263
▁Galatia	-3264
▁Kabatis	-3265
▁Melesen	-3266
▁Poinike	-3267
▁Romatyo	-3268
▁Tunyare	-3269
▁gogonya	-3270
▁gubaddu	-3271
▁kamulak	-3272
▁kayukuk	-3273
▁kaŋajin	-3274
▁kijakwa	-3275
▁kolanit	-3276
▁kurubat	-3277
▁kökörju	-3278
▁likiörö	-3279
▁mödirön	-3280
▁mömöndi	-3281
▁paleleŋ	-3282
▁rurudwe	-3283
▁ryoryok	-3284
▁suluesi	-3285
▁sösörju	-3286
▁tatakin	-3287
▁tatuani	-3288
▁tojubbu	-3289
▁tokelet	-3290
▁tokoret	-3291
▁tomonok	-3292
▁tulöddi	-3293
▁tunyare	-3294
▁yuyuket	-3295
▁Kipundye	-3296
▁Koanejin	-3297
▁Kornelio	-3298
▁Siliwano	-3299
▁batisani	-3300
▁biryeesi	-3301
▁denundye	-3302
▁gwigwien	-3303
▁gwuruŋin	-3304
▁jölöbiya	-3305
▁kayuŋwök	-3306
▁kokonaki	-3307
▁korodoti	-3308
▁kudyakan	-3309
▁löpuköni	-3310
▁minyojin	-3311
▁mumuluka	-3312
▁nyomotti	-3313
▁pararaju	-3314
▁pependya	-3315
▁pikundye	-3316
▁pipilesi	-3317
▁ropakine	-3318
▁rusundye	-3319
▁tatawero	-3320
▁tokoresi	-3321
▁tolikesi	-3322
▁totogolo	-3323
▁toŋiyuni	-3324
▁wöriŋöni	-3325
delakindye	-3326
▁Kölipönit	-3327
▁Parusityo	-3328
▁kaliliyak	-3329
▁kapepenak	-3330
▁kokonakin	-3331
▁kwekwelen	-3332
▁köbilityo	-3333
▁lawerikin	-3334
▁lokoyokak	-3335
▁mumuluket	-3336
▁nyököjine	-3337
▁roparikin	-3338
▁sunyundye	-3339
▁todumalan	-3340
▁tokoyokan	-3341
▁tokujöndi	-3342
▁yiyinikin	-3343
▁Kagweyanit	-3344
▁katatuanit	-3345
▁kwekwenine	-3346
▁kölökindyö	-3347
▁liŋikindyö	-3348
▁momorundya	-3349
▁pitökindye	-3350
▁rukökindyö	-3351
▁susunyukin	-3352
▁tatuarikin	-3353
▁tokwelenyo	-3354
▁tolikindye	-3355
▁topukundyö	-3356
▁totodumala	-3357
▁totokuöddu	-3358
▁Kabatisanit	-3359
▁gwörökindyö	-3360
▁kamemetanit	-3361
▁katokoronit	-3362
▁tumatyanjin	-3363
▁todinikindye	-3364
▁todinikindyö	-3365
▁tomorakindya	-3366
Do	-3367
It	-3368
ep	-3369
jI	-3370
ru	-3371
ub	-3372
▁.	-3373
ama	-3374
ati	-3375
bet	-3376
ebe	-3377
eli	-3378
eni	-3379
ggö	-3380
ije	-3381
ira	-3382
jor	-3383
jur	-3384
kim	-3385
kun	-3386
lwö	-3387
mbe	-3388
mur	-3389
mön	-3390
oja	-3391
one	-3392
oŋi	-3393
pia	-3394
sau	-3395
sul	-3396
tar	-3397
tat	-3398
uIö	-3399
uba	-3400
ukö	-3401
ura	-3402
use	-3403
yek	-3404
yut	-3405
yök	-3406
ölö	-3407
ŋgu	-3408
▁Ag	-3409
▁De	-3410
▁Gu	-3411
▁Iu	-3412
▁Lu	-3413
▁Mi	-3414
▁Mo	-3415
▁Tu	-3416
▁Tö	-3417
▁lŋ	-3418
▁op	-3419
▁tI	-3420
▁Ŋi	-3421
alaŋ	-3422
ande	-3423
anya	-3424
basi	-3425
dana	-3426
dayo	-3427
dore	-3428
dulu	-3429
dumu	-3430
döni	-3431
ebul	-3432
eopa	-3433
erja	-3434
eron	-3435
etyo	-3436
ilön	-3437
inai	-3438
jikö	-3439
kiot	-3440
kwet	-3441
lelu	-3442
loma	-3443
lome	-3444
mali	-3445
mpul	-3446
nesi	-3447
okak	-3448
onia	-3449
onio	-3450
onit	-3451
paki	-3452
pidi	-3453
poli	-3454
rabi	-3455
rian	-3456
udia	-3457
ukin	-3458
ulöŋ	-3459
urum	-3460
usia	-3461
utön	-3462
wate	-3463
yaka	-3464
yara	-3465
yola	-3466
yota	-3467
öndi	-3468
▁Aba	-3469
▁Bia	-3470
▁Daŋ	-3471
▁Kak	-3472
▁Kas	-3473
▁Kay	-3474
▁Kaŋ	-3475
▁Mil	-3476
▁Mön	-3477
▁Pit	-3478
▁Son	-3479
▁Tör	-3480
▁Yup	-3481
▁adI	-3482
▁aka	-3483
▁ber	-3484
▁diŋ	-3485
▁dum	-3486
▁gal	-3487
▁kap	-3488
▁kuu	-3489
▁kuŋ	-3490
▁kwa	-3491
▁lal	-3492
▁lii	-3493
▁lin	-3494
▁log	-3495
▁lyö	-3496
▁nuk	-3497
▁pas	-3498
▁pat	-3499
▁ret	-3500
▁sum	-3501
▁tis	-3502
▁tus	-3503
▁tyo	-3504
▁war	-3505
▁wil	-3506
▁yok	-3507
▁ŋeŋ	-3508
▁ŋis	-3509
▁ŋon	-3510
akayo	-3511
asito	-3512
atayo	-3513
barin	-3514
betan	-3515
budök	-3516
dayat	-3517
diloŋ	-3518
dokia	-3519
duatu	-3520
dugge	-3521
dukin	-3522
dukök	-3523
duŋak	-3524
duŋga	-3525
duŋin	-3526
endya	-3527
eroia	-3528
galan	-3529
ilisi	-3530
inewe	-3531
joŋgi	-3532
manit	-3533
mönik	-3534
ugwör	-3535
ululu	-3536
uruki	-3537
usito	-3538
usökö	-3539
worok	-3540
ököni	-3541
önyök	-3542
▁Aris	-3543
▁Bala	-3544
▁Esau	-3545
▁Gayo	-3546
▁Iege	-3547
▁Köju	-3548
▁Paji	-3549
▁Pije	-3550
▁Raba	-3551
▁Rima	-3552
▁Seke	-3553
▁Togo	-3554
▁bodo	-3555
▁buIö	-3556
▁dika	-3557
▁gaji	-3558
▁gube	-3559
▁gwut	-3560
▁kaje	-3561
▁kaŋa	-3562
▁keji	-3563
▁keyo	-3564
▁koji	-3565
▁kwet	-3566
▁leru	-3567
▁liya	-3568
▁lojo	-3569
▁lure	-3570
▁lömi	-3571
▁mane	-3572
▁miju	-3573
▁muit	-3574
▁muke	-3575
▁mulu	-3576
▁ndyö	-3577
▁nutu	-3578
▁nyek	-3579
▁nyel	-3580
▁peta	-3581
▁peŋa	-3582
▁rere	-3583
▁sonu	-3584
▁suki	-3585
▁taka	-3586
▁topi	-3587
▁tora	-3588
▁tuja	-3589
▁wawa	-3590
▁yupe	-3591
▁ŋani	-3592
▁ŋera	-3593
▁ŋöit	-3594
▁ŋöki	-3595
andero	-3596
aranit	-3597
bakani	-3598
biliki	-3599
bokara	-3600
diddya	-3601
duruun	-3602
duröki	-3603
ebulun	-3604
eopago	-3605
jinöti	-3606
leluya	-3607
lomayo	-3608
mpulia	-3609
mundya	-3610
mönöju	-3611
okorit	-3612
patali	-3613
sulyöŋ	-3614
ugujin	-3615
umajin	-3616
watira	-3617
ökötyo	-3618
ölökin	-3619
▁Abiya	-3620
▁Arabi	-3621
▁Barto	-3622
▁Diana	-3623
▁Erodi	-3624
▁Gwoso	-3625
▁Madaŋ	-3626
▁Nator	-3627
▁Ponto	-3628
▁Pusök	-3629
▁Sardi	-3630
▁Sinai	-3631
▁Temba	-3632
▁Tindi	-3633
▁baŋun	-3634
▁dabur	-3635
▁denun	-3636
▁dumba	-3637
▁gigin	-3638
▁giran	-3639
▁goŋet	-3640
▁gweji	-3641
▁gweki	-3642
▁gwigw	-3643
▁gwije	-3644
▁gwijö	-3645
▁gwiyö	-3646
▁gwoja	-3647
▁jweni	-3648
▁kakuk	-3649
▁kalet	-3650
▁kalya	-3651
▁karan	-3652
▁kateŋ	-3653
▁kindu	-3654
▁kotet	-3655
▁kwaje	-3656
▁laggi	-3657
▁laggu	-3658
▁lalai	-3659
▁laŋgu	-3660
▁lodon	-3661
▁lotor	-3662
▁loŋio	-3663
▁lujin	-3664
▁lölöp	-3665
▁lŋkoi	-3666
▁maili	-3667
▁mamat	-3668
▁mayat	-3669
▁milin	-3670
▁morji	-3671
▁mölwö	-3672
▁napar	-3673
▁nyare	-3674
▁opere	-3675
▁robba	-3676
▁rogga	-3677
▁ruruk	-3678
▁ryoka	-3679
▁ryöun	-3680
▁saani	-3681
▁soson	-3682
▁tojum	-3683
▁tomuk	-3684
▁topur	-3685
▁totum	-3686
▁twöni	-3687
▁töiIi	-3688
▁waŋet	-3689
▁wugge	-3690
▁wutön	-3691
▁yaŋan	-3692
▁yeyek	-3693
▁yeŋga	-3694
▁yuggu	-3695
▁Ŋiörö	-3696
▁ŋedep	-3697
▁ŋerji	-3698
▁ŋoŋoŋ	-3699
▁ŋöine	-3700
bikikin	-3701
ebedayo	-3702
maliele	-3703
yaladdu	-3704
yörikin	-3705
▁Beroia	-3706
▁Gubara	-3707
▁Ikonio	-3708
▁Kwakwa	-3709
▁Lyöŋön	-3710
▁Manase	-3711
▁Matayo	-3712
▁Mileto	-3713
▁Miriku	-3714
▁Ninewe	-3715
▁Nyakwa	-3716
▁Pitöki	-3717
▁Pontio	-3718
▁Rurwan	-3719
▁Yeyeji	-3720
▁bubuIö	-3721
▁dodoto	-3722
▁dukara	-3723
▁gigiri	-3724
▁girara	-3725
▁gwanan	-3726
▁gwörun	-3727
▁jorene	-3728
▁joŋari	-3729
▁jölöni	-3730
▁jölöri	-3731
▁karaki	-3732
▁kasulu	-3733
▁kinasi	-3734
▁kitoni	-3735
▁kiyene	-3736
▁kokora	-3737
▁koropo	-3738
▁kuddya	-3739
▁kuŋwat	-3740
▁lalane	-3741
▁likiso	-3742
▁lokore	-3743
▁lurwök	-3744
▁lwökun	-3745
▁makune	-3746
▁mamala	-3747
▁mimien	-3748
▁mindye	-3749
▁momoka	-3750
▁monoji	-3751
▁nagulu	-3752
▁nawate	-3753
▁nyökun	-3754
▁patala	-3755
▁puresi	-3756
▁riköji	-3757
▁ririki	-3758
▁ririŋa	-3759
▁rwöddi	-3760
▁ryoket	-3761
▁sumuti	-3762
▁tatune	-3763
▁tiddya	-3764
▁titiki	-3765
▁togole	-3766
▁tolome	-3767
▁tomora	-3768
▁toraki	-3769
▁torela	-3770
▁torujö	-3771
▁totolo	-3772
▁totomi	-3773
▁totore	-3774
▁tugwör	-3775
▁turaki	-3776
▁twanti	-3777
▁welesi	-3778
▁witiöt	-3779
▁woŋesi	-3780
▁wuwurö	-3781
▁wöriŋö	-3782
▁yeyema	-3783
▁yoyoko	-3784
▁ŋakine	-3785
▁ŋornan	-3786
▁ŋoroko	-3787
depajine	-3788
duŋökine	-3789
▁Aleluya	-3790
▁Aristar	-3791
▁Erasito	-3792
▁Gworolo	-3793
▁Luŋaser	-3794
▁Sonyoro	-3795
▁Tetendi	-3796
▁baraddi	-3797
▁dodogga	-3798
▁galaddi	-3799
▁galaddu	-3800
▁geladdu	-3801
▁ginejin	-3802
▁guralan	-3803
▁gwokiot	-3804
▁gwululu	-3805
▁gwögwör	-3806
▁kagomak	-3807
▁kakitak	-3808
▁kakonak	-3809
▁kalokak	-3810
▁kamerak	-3811
▁kamomor	-3812
▁katirut	-3813
▁kaŋarak	-3814
▁kaŋerak	-3815
▁kipyala	-3816
▁kiyaddu	-3817
▁kiyukan	-3818
▁kondore	-3819
▁kukulya	-3820
▁kwakwat	-3821
▁kweyani	-3822
▁köpuggö	-3823
▁laŋaddu	-3824
▁lelekun	-3825
▁lokiliŋ	-3826
▁mamandu	-3827
▁misajin	-3828
▁monyota	-3829
▁muduŋin	-3830
▁möröddi	-3831
▁naŋutut	-3832
▁pipinya	-3833
▁renyari	-3834
▁riundye	-3835
▁rurugga	-3836
▁tatuari	-3837
▁tirikin	-3838
▁tobudök	-3839
▁togeIeŋ	-3840
▁togirje	-3841
▁tojumbu	-3842
▁tolupet	-3843
▁tolutan	-3844
▁toruesi	-3845
▁toŋkwet	-3846
▁tukarju	-3847
▁tutuŋet	-3848
▁tömönik	-3849
▁welakin	-3850
▁wowoŋon	-3851
▁wuköddu	-3852
▁yeyeori	-3853
▁yuyubbö	-3854
▁yuyukan	-3855
▁yuyuŋwe	-3856
▁ŋeŋerja	-3857
▁Areopago	-3858
▁Kudyakan	-3859
▁Mönundye	-3860
▁Napatali	-3861
▁Pampulia	-3862
▁Saumajin	-3863
▁Tuwatira	-3864
▁gubajine	-3865
▁gugubuje	-3866
▁jojokoja	-3867
▁kamönyök	-3868
▁kanyarak	-3869
▁karenyak	-3870
▁kiasirik	-3871
▁kikitari	-3872
▁kipundye	-3873
▁kiyundye	-3874
▁kokoraki	-3875
▁kunyarju	-3876
▁kurubasi	-3877
▁lokworok	-3878
▁milyejin	-3879
▁minyotat	-3880
▁namunyak	-3881
▁nasulyöŋ	-3882
▁nyonyola	-3883
▁nyömöddu	-3884
▁nyönyökö	-3885
▁pipilisi	-3886
▁piyundye	-3887
▁rukökine	-3888
▁sonyoddu	-3889
▁teteyone	-3890
▁togolesi	-3891
▁tojoreji	-3892
▁tokitaju	-3893
▁tomoresi	-3894
▁topuökit	-3895
▁tugwakan	-3896
▁twatwane	-3897
▁wekindya	-3898
▁yasipidi	-3899
▁yuyukesi	-3900
▁yöyöŋesi	-3901
▁ŋakindye	-3902
▁ŋöjinöti	-3903
bilikindye	-3904
burukindya	-3905
burukindye	-3906
duŋökindye	-3907
▁Gamaliele	-3908
▁Kaweyanit	-3909
▁Kayukunit	-3910
▁Kwakwaddi	-3911
▁gweyundye	-3912
▁gwiliŋara	-3913
▁kametanit	-3914
▁katelanit	-3915
▁kitarikin	-3916
▁kokoladdu	-3917
▁kökölökin	-3918
▁laikindya	-3919
▁lwölwöŋgu	-3920
▁mumulugge	-3921
▁nyunyumbö	-3922
▁nyömundye	-3923
▁rigwököni	-3924
▁togiraddu	-3925
▁tokujöndu	-3926
▁tomukanat	-3927
▁waragalan	-3928
▁yiyiundyö	-3929
▁yukuundyö	-3930
▁Alesandero	-3931
▁Nyakwariat	-3932
▁dukakindya	-3933
▁korakindya	-3934
▁mirakindye	-3935
▁mokakindya	-3936
▁temejiktyo	-3937
▁tisakindye	-3938
▁tokukindye	-3939
▁tolomerian	-3940
▁tomorundya	-3941
▁torekindya	-3942
▁torekindye	-3943
▁totoŋundya	-3944
▁toworundya	-3945
▁toyimönöju	-3946
▁tutugwörju	-3947
▁yatakindya	-3948
▁Bartolomayo	-3949
▁gwululuöddu	-3950
▁kasuluwanit	-3951
▁lokwekwelen	-3952
▁milyekindyö	-3953
▁nyökökindye	-3954
▁nyönyökökin	-3955
▁totodinöddu	-3956
▁yuŋwekindyö	-3957
▁kikitakindya	-3958
▁tetenakindye	-3959
▁tokurukindye	-3960
▁baranyakindya	-3961
ai	-3962
em	-3963
iu	-3964
tö	-3965
uu	-3966
öm	-3967
Dum	-3968
Iip	-3969
Iön	-3970
anu	-3971
asa	-3972
dii	-3973
dio	-3974
eop	-3975
era	-3976
ert	-3977
ini	-3978
ite	-3979
iŋe	-3980
jwe	-3981
lau	-3982
lim	-3983
lyö	-3984
ogo	-3985
oli	-3986
pap	-3987
pok	-3988
sap	-3989
sea	-3990
sua	-3991
tia	-3992
töl	-3993
uIo	-3994
uIu	-3995
ujö	-3996
ure	-3997
uyu	-3998
uŋu	-3999
döt	-4000
yil	-4001
ökI	-4002
▁52	-4003
▁Ee	-4004
▁Go	-4005
▁Ny	-4006
▁Re	-4007
▁YI	-4008
▁em	-4009
▁ne	-4010
▁yI	-4011
Itan	-4012
aida	-4013
akim	-4014
alik	-4015
aliŋ	-4016
asan	-4017
atti	-4018
aŋan	-4019
batu	-4020
bede	-4021
beko	-4022
bela	-4023
biet	-4024
daba	-4025
demo	-4026
dije	-4027
diki	-4028
dire	-4029
duŋu	-4030
dwöt	-4031
döji	-4032
elet	-4033
emia	-4034
enes	-4035
esin	-4036
esop	-4037
gamo	-4038
giöt	-4039
gwut	-4040
jutu	-4041
kima	-4042
loni	-4043
maki	-4044
mega	-4045
oaja	-4046
okan	-4047
oran	-4048
orji	-4049
pimo	-4050
pira	-4051
puni	-4052
rikö	-4053
riot	-4054
ripa	-4055
riso	-4056
saba	-4057
toni	-4058
ubbe	-4059
udio	-4060
ugia	-4061
ukia	-4062
ukio	-4063
ulan	-4064
ulet	-4065
unie	-4066
unyö	-4067
upit	-4068
urak	-4069
urio	-4070
urje	-4071
urön	-4072
uset	-4073
useu	-4074
utak	-4075
utyo	-4076
wörö	-4077
wöti	-4078
yako	-4079
yare	-4080
yaŋi	-4081
yeju	-4082
yiki	-4083
yiyi	-4084
yoni	-4085
yutu	-4086
öriŋ	-4087
öŋgu	-4088
öŋtu	-4089
▁Asa	-4090
▁Aso	-4091
▁Awa	-4092
▁Buk	-4093
▁Eut	-4094
▁Ger	-4095
▁Iok	-4096
▁Ion	-4097
▁Iut	-4098
▁Kes	-4099
▁Mir	-4100
▁MuI	-4101
▁Muk	-4102
▁Pat	-4103
▁Pes	-4104
▁Ram	-4105
▁Rer	-4106
▁Sal	-4107
▁Sek	-4108
▁Sip	-4109
▁Tar	-4110
▁Tok	-4111
▁Tot	-4112
▁Yak	-4113
▁Yek	-4114
▁Yul	-4115
▁dos	-4116
▁jek	-4117
▁kug	-4118
▁kwö	-4119
▁lab	-4120
▁leg	-4121
▁let	-4122
▁lye	-4123
▁mit	-4124
▁mus	-4125
▁nat	-4126
▁nek	-4127
▁sak	-4128
▁ser	-4129
▁siw	-4130
▁sul	-4131
▁söp	-4132
▁tel	-4133
▁ter	-4134
▁tön	-4135
▁wit	-4136
▁wiŋ	-4137
▁wus	-4138
▁yal	-4139
▁Ŋar	-4140
▁ŋir	-4141
abari	-4142
anyen	-4143
belio	-4144
bogga	-4145
bukwe	-4146
bunuk	-4147
bunun	-4148
burwö	-4149
diket	-4150
doddi	-4151
dokak	-4152
dokwe	-4153
dumbe	-4154
duŋök	-4155
elise	-4156
eruba	-4157
iIija	-4158
iIyet	-4159
ilyaŋ	-4160
ilyet	-4161
joŋak	-4162
jumbi	-4163
jölök	-4164
likin	-4165
limöt	-4166
manti	-4167
mbere	-4168
metak	-4169
murna	-4170
okosi	-4171
olija	-4172
ondya	-4173
orama	-4174
oroji	-4175
papra	-4176
popok	-4177
rigwö	-4178
sigge	-4179
teyon	-4180
tölöŋ	-4181
uddye	-4182
ukaji	-4183
uline	-4184
unyun	-4185
wanak	-4186
wöddi	-4187
wöddu	-4188
wökön	-4189
yajin	-4190
yalet	-4191
yekak	-4192
yunyu	-4193
yurja	-4194
ökisi	-4195
▁Ajor	-4196
▁Akim	-4197
▁Amon	-4198
▁Aran	-4199
▁Aser	-4200
▁Etio	-4201
▁Ioko	-4202
▁Ioŋe	-4203
▁Kapo	-4204
▁Kene	-4205
▁Kido	-4206
▁Kita	-4207
▁Kosi	-4208
▁Kuru	-4209
▁Kölu	-4210
▁Lote	-4211
▁Lwöl	-4212
▁Midi	-4213
▁Mulö	-4214
▁Niya	-4215
▁Pila	-4216
▁Rabi	-4217
▁Rode	-4218
▁Sare	-4219
▁Silo	-4220
▁Suki	-4221
▁Teme	-4222
▁Teop	-4223
▁Tert	-4224
▁Tibe	-4225
▁Twan	-4226
▁Yane	-4227
▁Yiyi	-4228
▁aIip	-4229
▁bule	-4230
▁diŋö	-4231
▁dodo	-4232
▁dula	-4233
▁gigi	-4234
▁gura	-4235
▁gwaŋ	-4236
▁gwok	-4237
▁jaki	-4238
▁jijö	-4239
▁jikö	-4240
▁jima	-4241
▁joni	-4242
▁kama	-4243
▁kawe	-4244
▁kaye	-4245
▁kemi	-4246
▁kene	-4247
▁kiat	-4248
▁kito	-4249
▁kora	-4250
▁kwök	-4251
▁laun	-4252
▁lolo	-4253
▁lomu	-4254
▁losi	-4255
▁lyal	-4256
▁lömö	-4257
▁mera	-4258
▁meyi	-4259
▁mine	-4260
▁misa	-4261
▁miŋe	-4262
▁moke	-4263
▁mora	-4264
▁naŋe	-4265
▁ndye	-4266
▁niya	-4267
▁njin	-4268
▁nyit	-4269
▁poni	-4270
▁pudi	-4271
▁puke	-4272
▁pötö	-4273
▁reya	-4274
▁riŋe	-4275
▁ropo	-4276
▁ruda	-4277
▁rudu	-4278
▁rukö	-4279
▁rwör	-4280
▁rwös	-4281
▁ryar	-4282
▁saka	-4283
▁teŋe	-4284
▁tiyu	-4285
▁tosi	-4286
▁tulu	-4287
▁tuma	-4288
▁tuŋa	-4289
▁tuŋö	-4290
▁töyi	-4291
▁wela	-4292
▁were	-4293
▁wewe	-4294
▁wulu	-4295
▁wune	-4296
▁wuyu	-4297
▁wöku	-4298
▁wöli	-4299
▁yala	-4300
▁yolo	-4301
▁yuke	-4302
▁yune	-4303
▁yupö	-4304
▁Ŋilu	-4305
▁ŋaet	-4306
▁ŋane	-4307
▁ŋaru	-4308
▁ŋiki	-4309
▁ŋisa	-4310
▁ŋoma	-4311
▁ŋudu	-4312
akakin	-4313
alikan	-4314
anyaki	-4315
arakin	-4316
aseran	-4317
atiele	-4318
buköji	-4319
diaddi	-4320
dindye	-4321
dirörö	-4322
duköni	-4323
duŋöri	-4324
enejin	-4325
enesar	-4326
eranit	-4327
esaida	-4328
iliket	-4329
iliŋit	-4330
itunia	-4331
itönit	-4332
mundye	-4333
nesimo	-4334
okaddu	-4335
otamia	-4336
riatyo	-4337
sapata	-4338
ulusen	-4339
urunit	-4340
urupit	-4341
usutöt	-4342
yataki	-4343
▁Amina	-4344
▁Anyen	-4345
▁Balam	-4346
▁Binyo	-4347
▁Boaja	-4348
▁Daŋin	-4349
▁Demet	-4350
▁Kaina	-4351
▁Kemia	-4352
▁Kugge	-4353
▁Kukun	-4354
▁Kunie	-4355
▁Kweki	-4356
▁Ludia	-4357
▁Lukio	-4358
▁Luset	-4359
▁Lwöki	-4360
▁Matia	-4361
▁Mesop	-4362
▁Moran	-4363
▁Musia	-4364
▁Nyare	-4365
▁Nyeit	-4366
▁PauIo	-4367
▁Perat	-4368
▁Riörö	-4369
▁Riŋit	-4370
▁Sadok	-4371
▁Sarji	-4372
▁Taliŋ	-4373
▁Temet	-4374
▁Turup	-4375
▁Yisai	-4376
▁Yoana	-4377
▁Yosia	-4378
▁Yosua	-4379
▁Yubbe	-4380
▁Yupet	-4381
▁Yuŋwe	-4382
▁babar	-4383
▁baŋki	-4384
▁biryö	-4385
▁böriŋ	-4386
▁daggu	-4387
▁didir	-4388
▁dilyö	-4389
▁duduk	-4390
▁durwe	-4391
▁duyöm	-4392
▁döndi	-4393
▁gajin	-4394
▁gayet	-4395
▁gwoji	-4396
▁jiggö	-4397
▁jurut	-4398
▁jöjöl	-4399
▁karik	-4400
▁kayut	-4401
▁keken	-4402
▁kikin	-4403
▁kiser	-4404
▁konet	-4405
▁korji	-4406
▁kriso	-4407
▁kugge	-4408
▁kulon	-4409
▁kurut	-4410
▁kuyum	-4411
▁kwake	-4412
▁kweye	-4413
▁kwökö	-4414
▁kötyo	-4415
▁leusa	-4416
▁lilia	-4417
▁linyö	-4418
▁loggi	-4419
▁loket	-4420
▁lotek	-4421
▁loŋon	-4422
▁luluk	-4423
▁lömbu	-4424
▁melon	-4425
▁mijun	-4426
▁murwö	-4427
▁mörit	-4428
▁namet	-4429
▁narwö	-4430
▁naŋgu	-4431
▁nuddi	-4432
▁nugge	-4433
▁nyeit	-4434
▁nyelo	-4435
▁nöggu	-4436
▁pikun	-4437
▁pilan	-4438
▁purwe	-4439
▁putut	-4440
▁pöggu	-4441
▁riŋön	-4442
▁roggi	-4443
▁rubaŋ	-4444
▁röddi	-4445
▁saora	-4446
▁sonye	-4447
▁tanya	-4448
▁teteŋ	-4449
▁tokit	-4450
▁toluŋ	-4451
▁toyuö	-4452
▁tukun	-4453
▁turya	-4454
▁törön	-4455
▁walan	-4456
▁wandu	-4457
▁waset	-4458
▁wawaŋ	-4459
▁wekin	-4460
▁wukin	-4461
▁wuyun	-4462
▁yubbi	-4463
▁yukwe	-4464
▁yulöŋ	-4465
▁yurum	-4466
▁yuyut	-4467
▁yuŋun	-4468
▁Ŋoŋgi	-4469
▁ŋandu	-4470
▁ŋaret	-4471
▁ŋarji	-4472
▁ŋökin	-4473
anduria	-4474
asanyak	-4475
bilikin	-4476
buköddu	-4477
dayatak	-4478
delapia	-4479
dinikin	-4480
diundye	-4481
dorowet	-4482
duröddi	-4483
duundye	-4484
dötilön	-4485
kimakan	-4486
unundye	-4487
usököni	-4488
yanyara	-4489
yukönit	-4490
▁Abiuda	-4491
▁Agripa	-4492
▁Epapra	-4493
▁Erodia	-4494
▁Eutuko	-4495
▁Gabari	-4496
▁Gerasa	-4497
▁Gworoŋ	-4498
▁IiIija	-4499
▁Ionyit	-4500
▁Kurene	-4501
▁Ködini	-4502
▁Mokosi	-4503
▁Nasona	-4504
▁Nyoŋgi	-4505
▁Pelise	-4506
▁Perese	-4507
▁Peseto	-4508
▁Rabama	-4509
▁Ropaki	-4510
▁Sekeme	-4511
▁Sekine	-4512
▁Togole	-4513
▁Yakulo	-4514
▁Yiŋani	-4515
▁Yorama	-4516
▁Yusito	-4517
▁ajoŋgi	-4518
▁belesi	-4519
▁bulari	-4520
▁bulöri	-4521
▁dedena	-4522
▁dikara	-4523
▁doddya	-4524
▁dotoni	-4525
▁dukuki	-4526
▁dulaki	-4527
▁gelaki	-4528
▁goŋesi	-4529
▁guguba	-4530
▁gwesin	-4531
▁gwörit	-4532
▁jamani	-4533
▁jijikö	-4534
▁jupuni	-4535
▁kagwut	-4536
▁kalaak	-4537
▁kalesi	-4538
▁kamere	-4539
▁kamilo	-4540
▁kenaki	-4541
▁keresi	-4542
▁kiniki	-4543
▁kinuni	-4544
▁kitaet	-4545
▁kiteta	-4546
▁koŋote	-4547
▁koŋuti	-4548
▁kukuna	-4549
▁kurutu	-4550
▁kuröji	-4551
▁kökörö	-4552
▁kölisi	-4553
▁lalaet	-4554
▁lalaun	-4555
▁leleyo	-4556
▁lokole	-4557
▁lulupö	-4558
▁lulyan	-4559
▁lurwat	-4560
▁lusökö	-4561
▁luŋuki	-4562
▁luŋuri	-4563
▁lyöŋit	-4564
▁magora	-4565
▁makulo	-4566
▁mamaIa	-4567
▁mamata	-4568
▁meliŋa	-4569
▁mijörö	-4570
▁morogo	-4571
▁munyun	-4572
▁murutö	-4573
▁mömöji	-4574
▁nyeesi	-4575
▁nyoŋga	-4576
▁nyömbu	-4577
▁pakine	-4578
▁pasaka	-4579
▁popori	-4580
▁puriun	-4581
▁ririŋe	-4582
▁roriot	-4583
▁saalan	-4584
▁sardio	-4585
▁suluki	-4586
▁takine	-4587
▁temaki	-4588
▁tetene	-4589
▁tiriku	-4590
▁titiyu	-4591
▁tojuki	-4592
▁tojupu	-4593
▁tokori	-4594
▁tokoro	-4595
▁tomije	-4596
▁torani	-4597
▁toreja	-4598
▁totoyu	-4599
▁tulyaŋ	-4600
▁tupesi	-4601
▁twöyit	-4602
▁wowoja	-4603
▁wowoji	-4604
▁wuköji	-4605
▁wuwuju	-4606
▁wöidio	-4607
▁wöröri	-4608
▁wöwörö	-4609
▁yanyet	-4610
▁yeyeta	-4611
▁yitöri	-4612
▁yiyiŋa	-4613
▁yokone	-4614
▁yoloni	-4615
▁yoyolo	-4616
▁yöbuöt	-4617
▁yökije	-4618
▁ŋariet	-4619
▁ŋisani	-4620
Dumundye	-4621
bukundyö	-4622
burtölöŋ	-4623
dumajine	-4624
durundye	-4625
▁Alapayo	-4626
▁Barsaba	-4627
▁Bitunia	-4628
▁Eliakim	-4629
▁Genesar	-4630
▁Iyölyöŋ	-4631
▁Kaŋarak	-4632
▁Keseron	-4633
▁Kwakwas	-4634
▁Ködudwö	-4635
▁Lewijin	-4636
▁Ludweki	-4637
▁Lwölwöŋ	-4638
▁Löpugge	-4639
▁Pergamo	-4640
▁Pubelio	-4641
▁Purugia	-4642
▁Purwene	-4643
▁Samurna	-4644
▁Siloama	-4645
▁Sipania	-4646
▁Taruseu	-4647
▁Teopilo	-4648
▁Tertulo	-4649
▁Tetenet	-4650
▁Toberon	-4651
▁Tukwaje	-4652
▁Töilyet	-4653
▁Yambere	-4654
▁Yekonia	-4655
▁Yeremia	-4656
▁banyaki	-4657
▁baranda	-4658
▁böböndi	-4659
▁durwene	-4660
▁giraddi	-4661
▁gwuddyö	-4662
▁gwöriet	-4663
▁gwöröji	-4664
▁jamaddi	-4665
▁jamaddu	-4666
▁julökin	-4667
▁jupukin	-4668
▁kajamak	-4669
▁kajoŋak	-4670
▁kajölök	-4671
▁kakarji	-4672
▁kakutak	-4673
▁kapopok	-4674
▁karutyo	-4675
▁kawanak	-4676
▁kenakin	-4677
▁kikwöti	-4678
▁kiundyö	-4679
▁komoŋga	-4680
▁kopojin	-4681
▁kuggiöt	-4682
▁kupiret	-4683
▁kölwene	-4684
▁köpuket	-4685
▁köpukön	-4686
▁laŋaddi	-4687
▁legetyo	-4688
▁letajin	-4689
▁lilikin	-4690
▁loloŋga	-4691
▁loŋaddi	-4692
▁lujinte	-4693
▁luluŋgi	-4694
▁luluŋgu	-4695
▁lupunit	-4696
▁löpukwe	-4697
▁maraŋgi	-4698
▁metaddi	-4699
▁momoggi	-4700
▁monowet	-4701
▁möröddu	-4702
▁nagalaŋ	-4703
▁nyolani	-4704
▁pipigga	-4705
▁pitakin	-4706
▁puriörö	-4707
▁purwene	-4708
▁putukin	-4709
▁reregga	-4710
▁ridiket	-4711
▁ririŋga	-4712
▁ropakin	-4713
▁rorweki	-4714
▁ruköddu	-4715
▁sasanye	-4716
▁siwatat	-4717
▁sonyoro	-4718
▁sunyuki	-4719
▁tawerji	-4720
▁tawerju	-4721
▁temakin	-4722
▁tetembi	-4723
▁tikönyö	-4724
▁tojowet	-4725
▁tojukin	-4726
▁tolikin	-4727
▁tomieni	-4728
▁torigwö	-4729
▁totoggu	-4730
▁totoyem	-4731
▁totumbö	-4732
▁tujambu	-4733
▁tunyeji	-4734
▁tunyeju	-4735
▁turöddu	-4736
▁twötwöi	-4737
▁töiIyet	-4738
▁tölimöt	-4739
▁waratat	-4740
▁wititöt	-4741
▁wuluddu	-4742
▁wöwökön	-4743
▁yalajin	-4744
▁yatakin	-4745
▁yeyemba	-4746
▁yukwene	-4747
▁yuyugge	-4748
▁Ŋurupit	-4749
dokarikin	-4750
erubabela	-4751
yurarikin	-4752
▁Gwiliŋit	-4753
▁Kalaudio	-4754
▁Kinyojin	-4755
▁Kurudwöt	-4756
▁Lusetura	-4757
▁Nikodemo	-4758
▁Salamona	-4759
▁Sukindye	-4760
▁Tokuruki	-4761
▁Toronjin	-4762
▁Yosapata	-4763
▁batiddye	-4764
▁batisaki	-4765
▁batisari	-4766
▁bubulöri	-4767
▁dakundya	-4768
▁galundye	-4769
▁gubakine	-4770
▁gugubatu	-4771
▁gugubuja	-4772
▁gwegweya	-4773
▁gwugwutö	-4774
▁gwögwörö	-4775
▁jamundye	-4776
▁kanyunyu	-4777
▁katugwör	-4778
▁kekeporo	-4779
▁kelajine	-4780
▁kemialan	-4781
▁kenakine	-4782
▁kokondya	-4783
▁kokonoja	-4784
▁kurundye	-4785
▁kwekweya	-4786
▁kömiruöt	-4787
▁likitiat	-4788
▁lulukaji	-4789
▁lwököddu	-4790
▁lyalyaŋi	-4791
▁lölöpukö	-4792
▁mailijin	-4793
▁morundya	-4794
▁morundye	-4795
▁nanaŋaji	-4796
▁naparere	-4797
▁nyaratti	-4798
▁pitökine	-4799
▁pukundye	-4800
▁rerekesi	-4801
▁roropaki	-4802
▁sunyukin	-4803
▁taweroni	-4804
▁tetenari	-4805
▁tojoreju	-4806
▁tojumisi	-4807
▁tokelani	-4808
▁tokuöddi	-4809
▁tolutesi	-4810
▁topiriki	-4811
▁toruköki	-4812
▁totokela	-4813
▁totokujö	-4814
▁tukundye	-4815
▁tulyöŋgi	-4816
▁tutugwör	-4817
▁wiŋundye	-4818
▁wukundye	-4819
▁wuwuddye	-4820
▁yuyuköri	-4821
▁yökiöddi	-4822
▁ŋakindya	-4823
▁ŋoŋolija	-4824
bikikindye	-4825
bukökindyö	-4826
dukukindye	-4827
yalakindye	-4828
▁Aminadaba	-4829
▁Betesaida	-4830
▁Demeturio	-4831
▁Gabariele	-4832
▁Iokokorit	-4833
▁Kametanit	-4834
▁Kapodokia	-4835
▁Kasaranit	-4836
▁Katodinök	-4837
▁Kawelonit	-4838
▁MuIökötyo	-4839
▁Paganojin	-4840
▁Salatiele	-4841
▁Tukwörien	-4842
▁Yiyiundye	-4843
▁burugijin	-4844
▁dyadyaŋgi	-4845
▁dyadyaŋgu	-4846
▁gurusutöt	-4847
▁gwagwaddi	-4848
▁gwögwöŋtu	-4849
▁jojokaddu	-4850
▁kakonanit	-4851
▁kakukanit	-4852
▁kalabajin	-4853
▁kalupejin	-4854
▁kalupönit	-4855
▁kamomorok	-4856
▁kateŋonit	-4857
▁katimanti	-4858
▁kaweyanit	-4859
▁kawutejin	-4860
▁kawuyunit	-4861
▁kikisigge	-4862
▁kujönöesi	-4863
▁kwetundye	-4864
▁kwökwöddi	-4865
▁köbuŋötön	-4866
▁laikindye	-4867
▁likisojin	-4868
▁logulusen	-4869
▁lwölwökun	-4870
▁margarita	-4871
▁momoraddi	-4872
▁murugujin	-4873
▁namarikin	-4874
▁nekenejin	-4875
▁nyanyarju	-4876
▁nyönyökit	-4877
▁pupuraddu	-4878
▁rerenyani	-4879
▁rerenyari	-4880
▁rwörwöddu	-4881
▁sösöpugge	-4882
▁temarikin	-4883
▁tokimakan	-4884
▁tokurukin	-4885
▁toliliket	-4886
▁tomijöddu	-4887
▁topuökisi	-4888
▁totolikin	-4889
▁tupalikan	-4890
▁tutunöggu	-4891
▁tutuŋökin	-4892
▁yiyiundye	-4893
▁ŋoŋoŋaddu	-4894
▁Aristaruko	-4895
▁Samariatyo	-4896
▁Totoŋundya	-4897
▁babatiddya	-4898
▁babatiddye	-4899
▁barandajin	-4900
▁baranyaddi	-4901
▁dosakindya	-4902
▁dumökindye	-4903
▁gubakindya	-4904
▁gwögwöröki	-4905
▁jujukindya	-4906
▁julakindya	-4907
▁kagweyanit	-4908
▁kagwutönit	-4909
▁kanyömönit	-4910
▁karyakanit	-4911
▁kasasanyak	-4912
▁kenakindya	-4913
▁kokorakine	-4914
▁kulyarikin	-4915
▁kurutundyö	-4916
▁lonyanyara	-4917
▁pipitundyö	-4918
▁rurumundye	-4919
▁tokwelendi	-4920
▁topukundye	-4921
▁topurundye	-4922
▁tujarundya	-4923
▁wöriŋundye	-4924
▁yakakindye	-4925
▁yatakindye	-4926
▁yikökindye	-4927
▁yinikindye	-4928
▁yukakindya	-4929
▁yukukindyö	-4930
▁ŋaŋarundya	-4931
▁Alesanduria	-4932
▁Mesopotamia	-4933
▁Piladelapia	-4934
▁Tumatyanjin	-4935
▁gwelakindya	-4936
▁kapopokanit	-4937
▁kayuyukönit	-4938
▁linyökindye	-4939
▁milyekindye	-4940
▁nyekakindya	-4941
▁tanyakindya	-4942
▁toluŋaseran	-4943
▁totodinikin	-4944
▁totogoloddu	-4945
▁tukararikin	-4946
▁tukwöriendu	-4947
▁Tetenakindye	-4948
▁kukunakindya	-4949
▁löpukökindyö	-4950
▁momorakindya	-4951
▁momorakindye	-4952
▁mumulukindyö	-4953
▁pararakindya	-4954
▁rerenyarikin	-4955
▁yuyutakindye	-4956
▁kakwakwasanit	-4957
▁kamumulukanit	-4958
▁kwekweniarikin	-4959
,-	-4960
-'	-4961
--	-4962
.5	-4963
43	-4964
AK	-4965
AY	-4966
Bo	-4967
Di	-4968
Dö	-4969
ES	-4970
Ii	-4971
Iŋ	-4972
ag	-4973
ib	-4974
ii	-4975
kw	-4976
lö	-4977
nl	-4978
no	-4979
rb	-4980
wo	-4981
AKI	-4982
Bul	-4983
DAY	-4984
Duŋ	-4985
Iiŋ	-4986
Iju	-4987
Iok	-4988
Iot	-4989
Ioŋ	-4990
Yul	-4991
ada	-4992
aju	-4993
and	-4994
bol	-4995
boŋ	-4996
buy	-4997
dai	-4998
dap	-4999
Du	-5000
rI	-5001
▁o	-5002
dea	-5003
deŋ	-5004
dis	-5005
dom	-5006
due	-5007
eka	-5008
enk	-5009
ent	-5010
esI	-5011
gaI	-5012
gio	-5013
iik	-5014
ija	-5015
ika	-5016
ino	-5017
inu	-5018
itu	-5019
iŋö	-5020
jun	-5021
kon	-5022
kor	-5023
lem	-5024
lum	-5025
lup	-5026
lye	-5027
mir	-5028
mok	-5029
mon	-5030
mwe	-5031
mör	-5032
net	-5033
nok	-5034
nya	-5035
ojo	-5036
osa	-5037
otu	-5038
oŋa	-5039
oŋk	-5040
pet	-5041
rak	-5042
rid	-5043
rim	-5044
sIa	-5045
sai	-5046
set	-5047
sil	-5048
suk	-5049
sun	-5050
työ	-5051
uga	-5052
uku	-5053
umi	-5054
unu	-5055
upo	-5056
uök	-5057
uŋi	-5058
uŋö	-5059
war	-5060
wil	-5061
wul	-5062
yik	-5063
yoo	-5064
yot	-5065
yul	-5066
ywe	-5067
ŋun	-5068
▁53	-5069
▁55	-5070
▁60	-5071
▁Bö	-5072
▁Iw	-5073
▁Iö	-5074
▁Mö	-5075
▁Nu	-5076
▁TI	-5077
▁al	-5078
▁gö	-5079
▁ij	-5080
▁je	-5081
▁no	-5082
▁nr	-5083
▁rö	-5084
▁sI	-5085
▁un	-5086
▁ur	-5087
Duma	-5088
Iötu	-5089
abas	-5090
abbu	-5091
adaŋ	-5092
aina	-5093
akar	-5094
alak	-5095
alat	-5096
anak	-5097
anon	-5098
anyu	-5099
▁65	-5100
arki	-5101
arut	-5102
aset	-5103
baba	-5104
bebe	-5105
bilu	-5106
bulö	-5107
burö	-5108
buti	-5109
buya	-5110
bökö	-5111
dIrI	-5112
daji	-5113
dama	-5114
dati	-5115
datu	-5116
dika	-5117
dinI	-5118
dine	-5119
diŋö	-5120
doju	-5121
duri	-5122
dwan	-5123
ekak	-5124
eker	-5125
eneŋ	-5126
eoli	-5127
ereo	-5128
etot	-5129
gele	-5130
gelo	-5131
gora	-5132
gwaŋ	-5133
gwok	-5134
göri	-5135
iIik	-5136
iato	-5137
idya	-5138
inon	-5139
itul	-5140
iŋak	-5141
iŋet	-5142
jama	-5143
jiet	-5144
jiin	-5145
jiya	-5146
julö	-5147
keja	-5148
kele	-5149
koji	-5150
kune	-5151
lara	-5152
leki	-5153
liki	-5154
lita	-5155
luon	-5156
mane	-5157
mari	-5158
mone	-5159
ndye	-5160
niak	-5161
onoŋ	-5162
orak	-5163
pajo	-5164
para	-5165
peta	-5166
riet	-5167
risi	-5168
sesi	-5169
sona	-5170
suny	-5171
tyaŋ	-5172
uIya	-5173
ugwö	-5174
ukan	-5175
ukök	-5176
uluk	-5177
undo	-5178
unia	-5179
urea	-5180
urti	-5181
urye	-5182
usin	-5183
uswe	-5184
uŋun	-5185
wari	-5186
yeet	-5187
yeme	-5188
yeok	-5189
yesu	-5190
yija	-5191
yisi	-5192
yone	-5193
yuda	-5194
yuja	-5195
yöni	-5196
yösi	-5197
yöyu	-5198
ökök	-5199
ibe	-5200
aŋgo	-5201
boji	-5202
dane	-5203
dume	-5204
durö	-5205
gabo	-5206
goga	-5207
gulu	-5208
inyi	-5209
ipil	-5210
isto	-5211
iŋgo	-5212
pene	-5213
rani	-5214
twöt	-5215
uöni	-5216
öndu	-5217
öniy	-5218
önye	-5219
öŋöi	-5220
Ŋine	-5221
▁122	-5222
▁132	-5223
▁135	-5224
▁136	-5225
▁141	-5226
▁142	-5227
▁145	-5228
▁155	-5229
▁156	-5230
▁164	-5231
▁206	-5232
▁215	-5233
▁224	-5234
▁226	-5235
▁230	-5236
▁235	-5237
▁246	-5238
▁302	-5239
▁304	-5240
▁314	-5241
▁316	-5242
▁320	-5243
▁323	-5244
▁332	-5245
▁334	-5246
▁335	-5247
▁355	-5248
▁360	-5249
▁362	-5250
▁363	-5251
▁406	-5252
▁420	-5253
▁424	-5254
▁432	-5255
▁434	-5256
▁444	-5257
▁445	-5258
▁452	-5259
▁454	-5260
▁456	-5261
▁501	-5262
▁513	-5263
▁Aug	-5264
▁Bat	-5265
▁Den	-5266
▁Der	-5267
▁Duk	-5268
▁Ela	-5269
▁Eun	-5270
▁Iaŋ	-5271
▁Iuk	-5272
▁Kio	-5273
▁Kit	-5274
▁Kom	-5275
▁Kut	-5276
▁KöI	-5277
▁Köb	-5278
▁Köp	-5279
▁Laŋ	-5280
▁Let	-5281
▁Lew	-5282
▁Lil	-5283
▁Lup	-5284
▁Mal	-5285
▁Maŋ	-5286
▁Min	-5287
▁Mon	-5288
▁Mur	-5289
▁Nam	-5290
▁Put	-5291
▁Rab	-5292
▁Suk	-5293
▁Sus	-5294
▁Tat	-5295
▁Teŋ	-5296
▁Toj	-5297
▁Tul	-5298
▁Tup	-5299
ijö	-5300
abbi	-5301
irak	-5302
kipo	-5303
kulo	-5304
muki	-5305
tema	-5306
yilu	-5307
yoke	-5308
▁143	-5309
▁163	-5310
▁211	-5311
▁351	-5312
▁422	-5313
▁441	-5314
▁446	-5315
▁Eub	-5316
▁Tur	-5317
▁Yit	-5318
▁Yuk	-5319
▁buI	-5320
▁böŋ	-5321
▁ddu	-5322
▁der	-5323
▁dir	-5324
▁dok	-5325
▁dye	-5326
▁ggö	-5327
▁gin	-5328
▁gun	-5329
▁gut	-5330
▁iri	-5331
▁jiö	-5332
▁jöj	-5333
▁kaj	-5334
▁ket	-5335
▁köI	-5336
▁köt	-5337
▁las	-5338
▁leŋ	-5339
▁liö	-5340
▁lug	-5341
▁lön	-5342
▁mat	-5343
▁maŋ	-5344
▁med	-5345
▁mot	-5346
▁muI	-5347
▁mul	-5348
▁mör	-5349
▁nab	-5350
▁nal	-5351
▁nam	-5352
▁ndi	-5353
▁ndu	-5354
▁nia	-5355
▁nun	-5356
▁nwa	-5357
▁pes	-5358
▁pet	-5359
▁rat	-5360
▁ren	-5361
▁ria	-5362
▁rim	-5363
▁rio	-5364
▁rip	-5365
▁rok	-5366
▁run	-5367
▁rwe	-5368
▁teg	-5369
▁tij	-5370
▁tiŋ	-5371
▁tob	-5372
▁ton	-5373
▁uda	-5374
▁win	-5375
▁yim	-5376
▁yoŋ	-5377
▁yun	-5378
▁ŋat	-5379
▁ŋet	-5380
▁ŋgö	-5381
▁ŋök	-5382
▁ŋön	-5383
▁ŋör	-5384
▁ŋöŋ	-5385
Bulit	-5386
Dutet	-5387
Kondi	-5388
akani	-5389
alyöŋ	-5390
araga	-5391
araki	-5392
ataya	-5393
bajin	-5394
bakan	-5395
batan	-5396
baŋga	-5397
berju	-5398
bowak	-5399
iro	-5400
mie	-5401
▁dö	-5402
Bili	-5403
Dupi	-5404
beyi	-5405
buku	-5406
mina	-5407
page	-5408
tumi	-5409
umbe	-5410
Ŋilu	-5411
▁144	-5412
▁225	-5413
▁415	-5414
▁500	-5415
▁Ant	-5416
▁Get	-5417
▁Ilu	-5418
▁Köm	-5419
▁Rub	-5420
▁dwö	-5421
▁gom	-5422
Busan	-5423
buggö	-5424
burju	-5425
burjö	-5426
delak	-5427
delet	-5428
demba	-5429
dendi	-5430
dento	-5431
digga	-5432
diktö	-5433
dinya	-5434
diyat	-5435
dokon	-5436
dumak	-5437
durwe	-5438
duŋwe	-5439
ekesi	-5440
gelwe	-5441
girja	-5442
iaddu	-5443
ikila	-5444
ikuro	-5445
inyan	-5446
ipine	-5447
isari	-5448
jambi	-5449
jolon	-5450
jumbu	-5451
jumuk	-5452
kelau	-5453
kinde	-5454
kinto	-5455
laddi	-5456
lemai	-5457
leŋta	-5458
lonia	-5459
mökin	-5460
mönit	-5461
oniko	-5462
oŋiyu	-5463
payaŋ	-5464
penak	-5465
poddi	-5466
rakia	-5467
rakin	-5468
riŋit	-5469
sakin	-5470
silaŋ	-5471
soddi	-5472
tiani	-5473
udien	-5474
uköji	-5475
ulala	-5476
upujö	-5477
upötu	-5478
uresi	-5479
usani	-5480
usara	-5481
uŋösi	-5482
wökit	-5483
yakun	-5484
yaŋan	-5485
yelye	-5486
yendu	-5487
yiyik	-5488
yogga	-5489
yotet	-5490
önisi	-5491
▁Amor	-5492
▁Anti	-5493
▁Beli	-5494
▁Budu	-5495
▁Dani	-5496
▁Dene	-5497
▁Ermo	-5498
▁Goga	-5499
dte	-5500
tem	-5501
▁61	-5502
▁66	-5503
Dioŋ	-5504
atoa	-5505
bule	-5506
dirö	-5507
jumu	-5508
liet	-5509
logo	-5510
rilo	-5511
usio	-5512
▁110	-5513
▁114	-5514
▁115	-5515
▁300	-5516
▁333	-5517
▁344	-5518
▁443	-5519
▁503	-5520
▁504	-5521
▁521	-5522
▁Riu	-5523
▁lam	-5524
▁ŋiu	-5525
Duŋet	-5526
Maria	-5527
bukuI	-5528
dumwe	-5529
iriŋe	-5530
logon	-5531
yoran	-5532
▁Bete	-5533
▁Gada	-5534
▁Gidi	-5535
▁Iele	-5536
▁Iomu	-5537
▁Iose	-5538
▁Kale	-5539
▁Katu	-5540
▁Kidi	-5541
▁Kini	-5542
▁Kolo	-5543
▁Kona	-5544
▁Kone	-5545
▁Kopo	-5546
▁Koŋe	-5547
▁Köyi	-5548
▁Lili	-5549
▁Loju	-5550
▁Loki	-5551
▁Manu	-5552
▁Mura	-5553
▁Möni	-5554
▁Nyea	-5555
▁Pent	-5556
▁Peto	-5557
▁Pilo	-5558
▁Pine	-5559
▁Pioŋ	-5560
▁Puro	-5561
▁Rike	-5562
▁Rine	-5563
▁Rusu	-5564
▁Sali	-5565
▁Sele	-5566
▁Sona	-5567
▁Sosi	-5568
▁Tiki	-5569
▁Toke	-5570
▁Toko	-5571
▁Tore	-5572
▁Tosi	-5573
▁Tugw	-5574
▁Yulu	-5575
▁ambu	-5576
▁amet	-5577
▁buya	-5578
▁dani	-5579
▁dede	-5580
▁denu	-5581
▁dera	-5582
▁diIi	-5583
▁dini	-5584
▁emer	-5585
▁gaju	-5586
▁gale	-5587
▁gogo	-5588
▁gwat	-5589
▁gwiŋ	-5590
▁göri	-5591
▁iŋka	-5592
▁jaat	-5593
▁joŋe	-5594
▁julö	-5595
▁kajo	-5596
▁kaka	-5597
▁kalu	-5598
▁kayo	-5599
sta	-5600
▁64	-5601
gene	-5602
pipo	-5603
▁146	-5604
▁251	-5605
▁311	-5606
▁312	-5607
▁331	-5608
▁346	-5609
▁361	-5610
▁dud	-5611
▁röp	-5612
oniti	-5613
teton	-5614
ukine	-5615
wekwe	-5616
▁AsIa	-5617
▁Iŋge	-5618
▁Kenk	-5619
▁Kudu	-5620
▁Luŋa	-5621
▁Rope	-5622
▁Samo	-5623
▁keet	-5624
▁kesi	-5625
▁kiji	-5626
▁kili	-5627
▁kina	-5628
▁kini	-5629
▁kiri	-5630
▁koja	-5631
▁koka	-5632
▁koli	-5633
▁kone	-5634
▁kosi	-5635
▁koŋa	-5636
▁kuIu	-5637
▁kujö	-5638
▁kusa	-5639
▁kuta	-5640
▁kwön	-5641
▁köbi	-5642
▁ködu	-5643
▁köjI	-5644
▁kölö	-5645
▁köpu	-5646
▁kötu	-5647
▁lama	-5648
▁laya	-5649
▁lema	-5650
▁leya	-5651
▁libi	-5652
▁lido	-5653
▁liŋa	-5654
▁loju	-5655
▁loto	-5656
▁loŋa	-5657
▁lugu	-5658
▁lutu	-5659
▁luwi	-5660
▁luŋa	-5661
▁löri	-5662
▁muju	-5663
▁muka	-5664
▁muri	-5665
▁musa	-5666
▁musö	-5667
▁mömö	-5668
▁nawo	-5669
▁noke	-5670
▁nyak	-5671
▁nyop	-5672
▁nökö	-5673
▁nönö	-5674
▁pata	-5675
▁paya	-5676
▁peIe	-5677
▁pidi	-5678
▁pikö	-5679
▁piya	-5680
▁puja	-5681
▁puru	-5682
▁reji	-5683
▁riat	-5684
▁rine	-5685
▁riyu	-5686
▁roma	-5687
▁ropa	-5688
▁roto	-5689
▁rwöt	-5690
▁röni	-5691
▁sesi	-5692
▁soji	-5693
▁soju	-5694
▁soso	-5695
▁tIyu	-5696
▁tela	-5697
▁teŋo	-5698
▁tini	-5699
▁54	-5700
ambi	-5701
biti	-5702
lito	-5703
raji	-5704
yunI	-5705
▁161	-5706
▁366	-5707
▁Reb	-5708
▁woo	-5709
Dogga	-5710
esere	-5711
jarak	-5712
▁Bula	-5713
▁Lepe	-5714
▁Luka	-5715
▁Sape	-5716
▁Seta	-5717
▁Tuka	-5718
▁kökö	-5719
▁pelo	-5720
▁rade	-5721
▁reun	-5722
▁suka	-5723
▁tobo	-5724
▁tuIe	-5725
▁tuke	-5726
▁tukö	-5727
▁turu	-5728
▁tuwö	-5729
▁twöi	-5730
▁tyan	-5731
▁ugun	-5732
▁waye	-5733
▁wele	-5734
▁wile	-5735
▁wilo	-5736
▁wilö	-5737
▁wiri	-5738
▁wome	-5739
▁woro	-5740
▁wuni	-5741
▁wure	-5742
▁wuun	-5743
▁yaki	-5744
▁yata	-5745
▁yaya	-5746
▁yini	-5747
▁yoke	-5748
▁yule	-5749
▁Ŋuti	-5750
▁ŋara	-5751
▁ŋebi	-5752
▁ŋesi	-5753
▁ŋiet	-5754
▁ŋola	-5755
▁ŋule	-5756
▁ŋuru	-5757
▁ŋutö	-5758
▁ŋuyu	-5759
Dumara	-5760
Dupiet	-5761
adaŋak	-5762
aganon	-5763
alaggi	-5764
bilene	-5765
bitijö	-5766
bitöni	-5767
bitötu	-5768
boroki	-5769
buddya	-5770
buluti	-5771
bököri	-5772
danaet	-5773
dekari	-5774
delesi	-5775
diaddu	-5776
diddye	-5777
dindyö	-5778
diniki	-5779
dokani	-5780
dokari	-5781
dokeju	-5782
dokoro	-5783
doniko	-5784
doroju	-5785
duddye	-5786
duköki	-5787
dumani	-5788
duruki	-5789
duŋöji	-5790
duŋöni	-5791
dyadya	-5792
dökine	-5793
eneŋan	-5794
etenak	-5795
ikatat	-5796
iliŋgi	-5797
iliŋök	-5798
iyunit	-5799
▁62	-5800
▁63	-5801
▁111	-5802
▁112	-5803
▁130	-5804
▁131	-5805
▁140	-5806
▁150	-5807
▁152	-5808
▁160	-5809
▁162	-5810
▁166	-5811
▁301	-5812
▁303	-5813
▁305	-5814
▁330	-5815
▁336	-5816
▁364	-5817
▁421	-5818
▁423	-5819
▁425	-5820
▁426	-5821
▁440	-5822
▁442	-5823
▁502	-5824
▁Nea	-5825
utiet	-5826
▁Bule	-5827
▁Dion	-5828
▁Gaja	-5829
▁Lutu	-5830
▁akim	-5831
▁gota	-5832
▁mumu	-5833
IŋItan	-5834
aŋanet	-5835
buruji	-5836
jorene	-5837
masona	-5838
munyan	-5839
onakin	-5840
oranit	-5841
oroŋok	-5842
otumbö	-5843
paraso	-5844
patero	-5845
piatyo	-5846
rikine	-5847
rikuni	-5848
rikörö	-5849
uIugge	-5850
ujumbi	-5851
uluŋgö	-5852
ulökin	-5853
ulöŋtu	-5854
urukin	-5855
usania	-5856
usörju	-5857
wökine	-5858
yaraki	-5859
yiŋaji	-5860
yoddya	-5861
yundyö	-5862
yutuki	-5863
öpuggö	-5864
ösurök	-5865
ŋgwora	-5866
▁Agabo	-5867
▁Ampul	-5868
▁Areta	-5869
▁Balak	-5870
▁Barak	-5871
▁Barna	-5872
▁Benya	-5873
▁Derbe	-5874
▁Girik	-5875
▁Gulöm	-5876
▁Gurut	-5877
▁Gwulu	-5878
▁Iikaŋ	-5879
▁Ioron	-5880
▁Iwönö	-5881
▁Kalap	-5882
▁Kasas	-5883
▁Katuk	-5884
▁Kauda	-5885
▁Kijik	-5886
▁Kijit	-5887
▁Kokor	-5888
▁Kuloe	-5889
▁Kulon	-5890
▁Kupir	-5891
▁Kuren	-5892
▁Kusik	-5893
▁Laggi	-5894
▁Lasea	-5895
▁Loisi	-5896
▁Mugge	-5897
▁Nyesu	-5898
▁Piris	-5899
▁201	-5900
▁202	-5901
▁210	-5902
▁214	-5903
▁231	-5904
▁232	-5905
▁244	-5906
▁262	-5907
▁263	-5908
▁266	-5909
▁310	-5910
▁313	-5911
▁322	-5912
▁325	-5913
▁340	-5914
▁343	-5915
▁352	-5916
▁356	-5917
▁402	-5918
▁403	-5919
▁404	-5920
▁405	-5921
▁412	-5922
▁431	-5923
▁433	-5924
alido	-5925
doŋan	-5926
pater	-5927
patri	-5928
▁Gelu	-5929
▁Kabu	-5930
▁Kuja	-5931
▁Liya	-5932
▁Riyu	-5933
▁maIa	-5934
▁moŋa	-5935
▁poto	-5936
▁taŋa	-5937
▁ŋiIo	-5938
doŋaki	-5939
ujarji	-5940
▁Elisa	-5941
▁Liabe	-5942
▁Persi	-5943
▁Salem	-5944
▁Samot	-5945
▁Sondi	-5946
▁Surak	-5947
▁Surti	-5948
▁Tarak	-5949
▁Teuda	-5950
▁Tuggö	-5951
▁Yoele	-5952
▁Yugge	-5953
▁Yunia	-5954
▁berju	-5955
▁birya	-5956
▁denwe	-5957
▁dinök	-5958
▁doggu	-5959
▁donia	-5960
▁doŋga	-5961
▁gelya	-5962
▁goggi	-5963
▁goggu	-5964
▁golon	-5965
▁goman	-5966
▁gorji	-5967
▁gweyu	-5968
▁gwiki	-5969
▁gwuIu	-5970
▁gwutö	-5971
▁gömbu	-5972
▁jamet	-5973
▁jogga	-5974
▁joggi	-5975
▁jojon	-5976
▁joket	-5977
▁jurje	-5978
▁jölwe	-5979
▁kadum	-5980
▁kakal	-5981
▁kalyö	-5982
▁kalöp	-5983
▁kamba	-5984
▁kanit	-5985
▁karer	-5986
▁karop	-5987
▁katin	-5988
▁kayat	-5989
▁kaŋin	-5990
▁keker	-5991
▁kidia	-5992
▁kidyö	-5993
▁kimur	-5994
▁kisuk	-5995
▁kogon	-5996
▁korit	-5997
▁kuIye	-5998
▁kulan	-5999
boka	-6000
▁106	-6001
▁220	-6002
▁241	-6003
▁245	-6004
▁250	-6005
▁253	-6006
▁255	-6007
▁413	-6008
▁414	-6009
▁453	-6010
▁455	-6011
▁514	-6012
▁515	-6013
eseda	-6014
ilyök	-6015
nauma	-6016
omora	-6017
▁Arna	-6018
usulak	-6019
wöröju	-6020
▁Iuŋgu	-6021
▁Mitul	-6022
▁Momor	-6023
▁Twöju	-6024
▁baŋga	-6025
▁daket	-6026
▁dakwe	-6027
▁jöggi	-6028
▁kekep	-6029
▁keren	-6030
▁kulok	-6031
▁kumin	-6032
▁kunIe	-6033
▁kurit	-6034
▁kurök	-6035
▁kökin	-6036
▁kökon	-6037
▁kökör	-6038
▁kölwe	-6039
▁laddu	-6040
▁laesi	-6041
▁lakwe	-6042
▁leyot	-6043
▁liŋgo	-6044
▁lopir	-6045
▁lowul	-6046
▁loŋem	-6047
▁loŋga	-6048
▁loŋgi	-6049
▁lugge	-6050
▁lulup	-6051
▁lupet	-6052
▁lurwö	-6053
▁lwöŋi	-6054
▁lölöm	-6055
▁lömbi	-6056
▁lönit	-6057
▁mijan	-6058
▁mirun	-6059
▁mirwe	-6060
▁moara	-6061
▁mojoŋ	-6062
▁momon	-6063
▁muele	-6064
▁munit	-6065
▁möggi	-6066
▁mönit	-6067
▁mörik	-6068
▁nabat	-6069
▁nagaI	-6070
▁nakan	-6071
▁nakin	-6072
▁nanye	-6073
▁natun	-6074
▁naŋgi	-6075
▁naŋon	-6076
▁nityo	-6077
▁nuddu	-6078
▁nuket	-6079
▁nyope	-6080
▁nyore	-6081
▁nyöki	-6082
▁nyömö	-6083
▁nyöni	-6084
▁pakin	-6085
▁pejin	-6086
▁peron	-6087
▁peŋat	-6088
▁peŋga	-6089
▁pigga	-6090
▁pondI	-6091
▁puriu	-6092
▁purje	-6093
▁raddi	-6094
▁raddu	-6095
▁raele	-6096
▁rembu	-6097
▁rigge	-6098
▁riggö	-6099
jIn	-6100
buse	-6101
epan	-6102
epok	-6103
önIt	-6104
▁121	-6105
Doggi	-6106
epata	-6107
gilön	-6108
lokak	-6109
lokok	-6110
usukö	-6111
warto	-6112
wölöŋ	-6113
▁Dema	-6114
▁Momo	-6115
▁Yiŋe	-6116
▁Yupe	-6117
▁rölö	-6118
▁soŋi	-6119
▁wujI	-6120
▁yikö	-6121
▁yurö	-6122
alaŋak	-6123
danaji	-6124
deleji	-6125
döyösi	-6126
okoret	-6127
ubajin	-6128
ölötyo	-6129
▁Agara	-6130
▁Koŋon	-6131
▁Lusia	-6132
▁Molok	-6133
▁Repan	-6134
▁Toyek	-6135
▁Töili	-6136
▁Yiŋge	-6137
▁böndi	-6138
▁kapup	-6139
▁rikun	-6140
▁rikwe	-6141
▁riŋwe	-6142
▁robbi	-6143
▁ryaka	-6144
▁sabak	-6145
▁sasar	-6146
▁sauma	-6147
▁seddi	-6148
▁setet	-6149
▁sirik	-6150
▁sobba	-6151
▁sobbi	-6152
▁sooro	-6153
▁sosor	-6154
▁suali	-6155
▁surum	-6156
▁taIiŋ	-6157
▁tandi	-6158
▁tandu	-6159
▁teŋet	-6160
▁tigga	-6161
▁tigge	-6162
▁tijoŋ	-6163
▁tikwe	-6164
▁togwo	-6165
▁tokuö	-6166
▁totem	-6167
▁totor	-6168
▁tukar	-6169
▁tukwa	-6170
▁tuman	-6171
▁tumbe	-6172
▁tumön	-6173
▁tuyat	-6174
▁tuyaŋ	-6175
▁töggi	-6176
▁undye	-6177
▁waŋgi	-6178
▁wirja	-6179
▁wowoa	-6180
▁wuret	-6181
▁wuwur	-6182
▁wuŋun	-6183
▁wörji	-6184
▁yaddi	-6185
▁yaggi	-6186
▁yakun	-6187
▁yanya	-6188
▁yembi	-6189
▁yeŋgi	-6190
▁yodom	-6191
▁yoŋga	-6192
▁yuggi	-6193
▁yukit	-6194
▁yuörö	-6195
▁yöili	-6196
▁Ŋoŋga	-6197
▁ŋaesi	-6198
▁ŋakin	-6199
▁göm	-6200
uIuja	-6201
uyuje	-6202
▁Golo	-6203
▁Iera	-6204
▁Mika	-6205
▁Panu	-6206
▁Ture	-6207
▁dyoo	-6208
▁köiu	-6209
▁tuss	-6210
▁wini	-6211
▁wuuu	-6212
▁wuŋu	-6213
▁Ŋuyu	-6214
barinu	-6215
eletyo	-6216
inyiki	-6217
ugwöre	-6218
▁Bulet	-6219
▁Lukia	-6220
▁Miret	-6221
▁Patmo	-6222
▁Torji	-6223
▁Yaŋgo	-6224
▁Yulia	-6225
▁Yulio	-6226
▁emera	-6227
▁muguu	-6228
▁mulua	-6229
▁nokan	-6230
▁rupit	-6231
▁senya	-6232
▁wilun	-6233
▁ŋanya	-6234
▁ŋikin	-6235
▁ŋogwo	-6236
▁ŋorji	-6237
▁ŋorju	-6238
▁ŋoŋet	-6239
▁ŋöŋöi	-6240
alyöŋön	-6241
bakaara	-6242
bakaddu	-6243
barindu	-6244
bekoddi	-6245
bekoddu	-6246
beleŋok	-6247
biyaddu	-6248
bukökin	-6249
bunyöki	-6250
buruddu	-6251
delanit	-6252
delekon	-6253
dokanit	-6254
dukönit	-6255
dukötyo	-6256
duluddu	-6257
durikin	-6258
duröddu	-6259
enyakin	-6260
ilyaŋak	-6261
jumunit	-6262
jurakan	-6263
ludweki	-6264
orondya	-6265
oŋkorok	-6266
rikulan	-6267
sunyuki	-6268
wariara	-6269
wölöŋgu	-6270
wöriene	-6271
yaladdi	-6272
yiladdu	-6273
yiyikin	-6274
yurakin	-6275
yutunit	-6276
yölöddi	-6277
yölöddu	-6278
▁Abadon	-6279
▁Ampipo	-6280
▁AntIok	-6281
▁Dendya	-6282
▁Dukaki	-6283
▁Gadara	-6284
▁Gwunyu	-6285
▁Iukata	-6286
▁Iyaŋan	-6287
▁Kajuju	-6288
▁Kamara	-6289
▁Katatu	-6290
▁Kinido	-6291
▁Konaki	-6292
▁Kujönö	-6293
▁Kuliya	-6294
▁Kwarto	-6295
▁Kweyet	-6296
▁Könisi	-6297
▁Magoga	-6298
▁Makedo	-6299
Bole	-6300
ibya	-6301
▁Akw	-6302
▁YES	-6303
▁rno	-6304
boIot	-6305
bolun	-6306
boŋgo	-6307
dapan	-6308
lumpa	-6309
rbano	-6310
▁Kand	-6311
▁Lino	-6312
▁Paii	-6313
▁Rupo	-6314
▁Ŋinu	-6315
▁ŋire	-6316
DAYAKI	-6317
Yulöki	-6318
▁Kamör	-6319
▁Libya	-6320
▁Madai	-6321
▁Regio	-6322
▁dodot	-6323
▁losim	-6324
▁mimir	-6325
▁naŋem	-6326
▁ogwon	-6327
▁söpuk	-6328
dakakin	-6329
disityo	-6330
▁Akwila	-6331
▁Eunike	-6332
▁Kukune	-6333
▁Malaik	-6334
▁Maluko	-6335
▁Manaen	-6336
▁Melita	-6337
▁Minyet	-6338
▁Möröni	-6339
▁Nakwan	-6340
▁Natani	-6341
▁Parara	-6342
▁Partia	-6343
▁Patara	-6344
▁Salami	-6345
▁Sapira	-6346
▁Saraki	-6347
▁Sekewa	-6348
▁Sekilo	-6349
▁Sukara	-6350
▁Tawero	-6351
▁Temaki	-6352
▁Toyiyi	-6353
▁Tukuki	-6354
▁Turano	-6355
▁alabas	-6356
▁aseker	-6357
▁baulan	-6358
▁bilili	-6359
▁bubulo	-6360
▁böŋöji	-6361
▁böŋöni	-6362
▁böŋöri	-6363
▁dadara	-6364
▁dakesi	-6365
▁denari	-6366
▁didiŋö	-6367
▁dotori	-6368
▁dukaji	-6369
▁dwöIön	-6370
▁dyaŋan	-6371
▁gayesi	-6372
▁gelaji	-6373
▁gilösi	-6374
▁giresi	-6375
▁giruki	-6376
▁gorwat	-6377
▁gotani	-6378
▁gotesi	-6379
▁gwagwa	-6380
▁gwikin	-6381
▁gwiörö	-6382
▁gwoIoŋ	-6383
▁gwutet	-6384
▁gwörwe	-6385
▁jakine	-6386
▁jamaji	-6387
▁jikörö	-6388
▁jojoŋa	-6389
▁jundyö	-6390
▁jwejwe	-6391
▁jöjölö	-6392
▁kakjin	-6393
▁kaluti	-6394
▁kamisa	-6395
▁karara	-6396
▁katoŋi	-6397
▁kawuyu	-6398
▁keporo	-6399
noka	-6400
uönir	-6401
▁Arim	-6402
▁Elam	-6403
▁punu	-6404
arkiso	-6405
biluji	-6406
bulötö	-6407
etotyo	-6408
setene	-6409
uryeje	-6410
▁Ainon	-6411
▁Akele	-6412
▁Enoka	-6413
▁Gugwö	-6414
▁IiIik	-6415
▁Liŋgo	-6416
▁Nereo	-6417
▁Poibe	-6418
▁Riŋet	-6419
▁Ropet	-6420
▁böndu	-6421
▁jalat	-6422
▁kuuku	-6423
▁parid	-6424
▁rabbu	-6425
▁ŋyesu	-6426
bulusin	-6427
deŋgele	-6428
esemane	-6429
lekidon	-6430
ulukuti	-6431
ökIndye	-6432
▁Damari	-6433
▁IkuIya	-6434
▁Iturea	-6435
▁Iömöni	-6436
▁Kitani	-6437
▁Liline	-6438
▁Pugelo	-6439
▁Toliki	-6440
▁Yepeta	-6441
▁Yeyeet	-6442
▁gonywe	-6443
▁jujulö	-6444
▁kelara	-6445
▁kidiya	-6446
▁kitaki	-6447
▁kitaun	-6448
▁kobaba	-6449
▁konari	-6450
▁koraki	-6451
▁korara	-6452
▁kotyaŋ	-6453
▁kukuta	-6454
▁kuliya	-6455
▁kurumi	-6456
▁kuruun	-6457
▁kuruwe	-6458
▁kurörö	-6459
▁kutari	-6460
▁kwaddi	-6461
▁ködinI	-6462
▁kölipö	-6463
▁kölöni	-6464
▁kölöri	-6465
▁köputö	-6466
▁körisi	-6467
▁labaki	-6468
▁labara	-6469
▁laikin	-6470
▁lawesi	-6471
▁leleju	-6472
▁likito	-6473
▁liliet	-6474
▁liliki	-6475
▁liline	-6476
▁liliun	-6477
▁lojiet	-6478
▁loteko	-6479
▁luluru	-6480
▁lundya	-6481
▁luruöt	-6482
▁luŋasi	-6483
▁lwökwe	-6484
▁lwöŋgi	-6485
▁lyaesi	-6486
▁lömisi	-6487
▁makine	-6488
▁mamago	-6489
▁manesi	-6490
▁matyan	-6491
▁metaji	-6492
▁metari	-6493
▁miresi	-6494
▁miŋeki	-6495
▁mokaji	-6496
▁momora	-6497
▁momore	-6498
▁momoŋa	-6499
ekosta	-6500
▁Salim	-6501
▁Satoa	-6502
▁Yairo	-6503
bukuIuŋ	-6504
▁Arkipo	-6505
▁Artema	-6506
▁Eubulo	-6507
▁Kömiru	-6508
▁Lupöni	-6509
▁Lwökit	-6510
▁Maŋilo	-6511
▁Namana	-6512
▁Raboni	-6513
▁Ririŋe	-6514
▁Rubena	-6515
▁Susana	-6516
▁Tatune	-6517
▁Yitöni	-6518
▁Yukuki	-6519
▁berilo	-6520
▁böŋörö	-6521
▁gindya	-6522
▁kötumi	-6523
▁lasesi	-6524
▁monyet	-6525
▁moresi	-6526
▁mukine	-6527
▁mukune	-6528
▁muköki	-6529
▁musöni	-6530
▁möriet	-6531
▁mörikö	-6532
▁möriöt	-6533
▁möröri	-6534
▁mötwöt	-6535
▁najama	-6536
▁najore	-6537
▁nanaji	-6538
▁nanaju	-6539
▁nanane	-6540
▁nanaŋa	-6541
▁narada	-6542
▁nukani	-6543
▁nukari	-6544
▁nunutu	-6545
▁nwaiik	-6546
▁nyobbi	-6547
▁nyoŋgi	-6548
▁nyumbe	-6549
▁nyumbö	-6550
▁papaki	-6551
▁pepena	-6552
▁pepene	-6553
▁pipilu	-6554
▁pipiya	-6555
▁rayaka	-6556
▁renyun	-6557
▁rikija	-6558
▁rikije	-6559
▁ririkö	-6560
▁riöddu	-6561
▁riŋaki	-6562
▁romara	-6563
▁rondya	-6564
▁ropani	-6565
▁ropari	-6566
▁rukesi	-6567
▁rundya	-6568
▁ruruka	-6569
▁ryakun	-6570
▁ryekin	-6571
▁ryendu	-6572
▁sabata	-6573
▁sakani	-6574
▁sakari	-6575
▁sapira	-6576
▁sekune	-6577
▁seyara	-6578
▁sirani	-6579
▁sosore	-6580
▁tagwok	-6581
▁tegula	-6582
▁temeki	-6583
▁temesi	-6584
▁terere	-6585
▁tetela	-6586
▁titikö	-6587
▁titima	-6588
▁titoni	-6589
▁tiyunI	-6590
▁tiyuni	-6591
▁tiŋiki	-6592
▁tobebe	-6593
▁todini	-6594
▁togulu	-6595
▁tojoju	-6596
▁tokuet	-6597
▁tokuŋu	-6598
▁tokwil	-6599
▁Gomora	-6600
▁Rebeka	-6601
▁libira	-6602
▁murilö	-6603
▁musaIa	-6604
▁rotolo	-6605
▁suIuja	-6606
▁topajo	-6607
▁toreki	-6608
▁tornet	-6609
▁torune	-6610
▁totobu	-6611
▁totopi	-6612
▁towora	-6613
▁toyeme	-6614
▁toyuje	-6615
▁toŋIju	-6616
▁tukayu	-6617
▁tukujö	-6618
▁tukökI	-6619
▁tulene	-6620
▁tumane	-6621
▁tumöni	-6622
▁tuŋaun	-6623
▁tuŋuti	-6624
▁tuŋöki	-6625
▁waraki	-6626
▁wasesi	-6627
▁wereyo	-6628
▁winikö	-6629
▁wiwije	-6630
▁wiwijö	-6631
▁wiwiŋö	-6632
▁wowora	-6633
▁wukörö	-6634
▁wunyun	-6635
▁wuresi	-6636
▁wusani	-6637
▁wusara	-6638
▁wuwuki	-6639
▁wuwuŋi	-6640
▁wuyisi	-6641
▁yakulo	-6642
▁yayuja	-6643
▁yekaki	-6644
▁yeyeti	-6645
▁yiköki	-6646
▁yiyiun	-6647
▁yiŋari	-6648
▁yokujö	-6649
▁yoyope	-6650
▁yoŋaki	-6651
▁yuddye	-6652
▁yukuki	-6653
▁yunaki	-6654
▁yundye	-6655
▁yuyuke	-6656
▁yuöggu	-6657
▁Ŋaraki	-6658
▁ŋaaddi	-6659
▁ŋaaddu	-6660
▁ŋaŋaju	-6661
▁ŋaŋara	-6662
▁ŋeddya	-6663
▁ŋerani	-6664
▁ŋisesi	-6665
▁ŋiŋisa	-6666
▁ŋoŋoja	-6667
baŋgajin	-6668
bilundye	-6669
biyundye	-6670
buköjine	-6671
danajine	-6672
delakine	-6673
depakine	-6674
dukindye	-6675
dukundyö	-6676
dutundyö	-6677
duŋundyö	-6678
eserejin	-6679
ipilunit	-6680
jolonyon	-6681
nesiporo	-6682
tianijin	-6683
yalakine	-6684
yilundya	-6685
▁Abilene	-6686
▁Apoluon	-6687
▁Arkelau	-6688
▁Beliala	-6689
▁Daniele	-6690
▁Eliyuda	-6691
▁Epikuro	-6692
▁Etiopia	-6693
▁Gidiona	-6694
▁Iaŋaddu	-6695
▁Iluriko	-6696
▁Iokoyok	-6697
▁Iuyökie	-6698
▁Kadijik	-6699
▁Kaledea	-6700
▁Kandake	-6701
▁Kepoddi	-6702
▁Kitajin	-6703
▁Kolanit	-6704
▁Kolosai	-6705
▁Komonye	-6706
▁Kristia	-6707
▁Kululuŋ	-6708
▁Kutusen	-6709
▁KöIumbö	-6710
▁Köbuŋöt	-6711
▁Köpuröt	-6712
▁Kötumit	-6713
▁Laŋaddi	-6714
▁Letajin	-6715
▁Lewityo	-6716
▁Lorigwo	-6717
▁Loriŋit	-6718
▁Lusania	-6719
▁Luyökie	-6720
▁Luŋösur	-6721
▁Magadan	-6722
▁Midijik	-6723
▁Midiyan	-6724
▁Mikaele	-6725
▁Mugunya	-6726
▁Mukanat	-6727
▁Narkiso	-6728
▁Neapoli	-6729
▁Nikolau	-6730
▁Panuele	-6731
▁Pilipoi	-6732
▁Pudento	-6733
▁Puteoli	-6734
▁Rerenya	-6735
▁Sekundo	-6736
▁Tiberia	-6737
▁Tiberio	-6738
▁Tojumbi	-6739
▁Tojumbu	-6740
▁Tokoret	-6741
▁Tugwöre	-6742
▁Tujarji	-6743
▁Tulwöki	-6744
▁Tuparan	-6745
▁Yaŋanet	-6746
▁Yisakar	-6747
▁babarun	-6748
▁babaŋun	-6749
▁barandi	-6750
▁barandu	-6751
▁böŋöddu	-6752
▁dIŋItan	-6753
▁diŋItan	-6754
▁dotoesi	-6755
▁dudulet	-6756
▁dudurwe	-6757
▁dukaddi	-6758
▁dukaddu	-6759
▁döundyö	-6760
▁gaundye	-6761
▁gegelwe	-6762
▁gelakin	-6763
▁giginya	-6764
▁gogolon	-6765
▁gogondi	-6766
▁gwelaki	-6767
▁gweyani	-6768
▁gwiyöni	-6769
▁gwuIuet	-6770
▁gwuddye	-6771
▁gwuluŋi	-6772
▁gwutöki	-6773
▁gwöröki	-6774
▁gwörörö	-6775
▁ijondya	-6776
▁jajambi	-6777
▁jajamun	-6778
▁jakakin	-6779
▁jaundye	-6780
▁jekaddi	-6781
▁jekaddu	-6782
▁jiköddi	-6783
▁jiköddu	-6784
▁jojogga	-6785
▁jujumbi	-6786
▁jujumbu	-6787
▁jöjöŋgu	-6788
▁kabowak	-6789
▁kadumak	-6790
▁kaineki	-6791
▁kajulök	-6792
▁kakamak	-6793
▁kakaran	-6794
▁kakepok	-6795
▁kakukak	-6796
▁kalabbi	-6797
▁kalyati	-6798
▁kamaddu	-6799
▁kamanak	-6800
▁kametak	-6801
▁karemok	-6802
▁karikin	-6803
▁karikök	-6804
▁katelak	-6805
▁kateŋok	-6806
▁katimun	-6807
▁katökök	-6808
▁kawirak	-6809
▁kaworak	-6810
▁kawuyuk	-6811
▁kayekak	-6812
▁kayiŋak	-6813
▁kayolok	-6814
▁kayujin	-6815
▁kayulök	-6816
▁kekebbi	-6817
▁kekebbu	-6818
▁kijolon	-6819
▁kikindu	-6820
▁kimurte	-6821
▁kinamon	-6822
▁kinuddi	-6823
▁kiundya	-6824
▁kokondi	-6825
▁komoŋgi	-6826
▁komunyi	-6827
▁komönye	-6828
▁konidya	-6829
▁korakin	-6830
▁korukan	-6831
▁kujönit	-6832
▁kujönök	-6833
▁kukuesi	-6834
▁kukuörö	-6835
▁kulupit	-6836
▁kulyanl	-6837
▁kusikön	-6838
▁kwariat	-6839
▁kwasesi	-6840
▁kwenine	-6841
▁kweyene	-6842
▁köburjö	-6843
▁kökörji	-6844
▁köturön	-6845
▁lalaesi	-6846
▁lalaiya	-6847
▁lelejur	-6848
▁leusani	-6849
▁lodirön	-6850
▁lodokon	-6851
▁lojambi	-6852
▁lorigwo	-6853
▁loteyon	-6854
▁lotonoŋ	-6855
▁loŋaddu	-6856
▁loŋutut	-6857
▁lulubbö	-6858
▁lulurön	-6859
▁luŋuddi	-6860
▁luŋukin	-6861
▁luŋutöt	-6862
▁lwökisi	-6863
▁lwököri	-6864
▁löpuket	-6865
▁löpukun	-6866
▁malaika	-6867
▁maraŋgu	-6868
▁memeddi	-6869
▁memelan	-6870
▁memetwe	-6871
▁metaddu	-6872
▁meyaddi	-6873
▁mimijun	-6874
▁mokaddu	-6875
▁momogga	-6876
▁momokun	-6877
▁momores	-6878
▁monoani	-6879
▁monoari	-6880
▁muluani	-6881
▁mulunyö	-6882
▁mumulun	-6883
▁mumutön	-6884
▁murwöki	-6885
▁mömörji	-6886
▁nagaIaŋ	-6887
▁nanaara	-6888
▁napayaŋ	-6889
▁nateyon	-6890
▁nyekulo	-6891
▁nyelaki	-6892
▁nyököji	-6893
▁nyömöji	-6894
▁nönöggu	-6895
▁pepenet	-6896
▁pesaddu	-6897
▁piköddu	-6898
▁ponduma	-6899
▁popokin	-6900
▁pupurwe	-6901
▁pöyiyik	-6902
▁rereara	-6903
▁rikökin	-6904
▁rimatat	-6905
▁ripakin	-6906
▁ririŋet	-6907
▁ririŋwe	-6908
▁ririŋön	-6909
▁riundyö	-6910
▁riyajin	-6911
▁riŋgwaŋ	-6912
▁rorogga	-6913
▁rosoddi	-6914
▁rubatan	-6915
▁rudweni	-6916
▁rugwuŋö	-6917
▁rurumba	-6918
▁rurumbi	-6919
▁rurumön	-6920
▁sasarji	-6921
▁sejoŋgi	-6922
▁sonyoji	-6923
▁sonyoni	-6924
▁söpugge	-6925
▁taweret	-6926
▁teteŋgu	-6927
▁tijaran	-6928
▁titigge	-6929
▁titimba	-6930
▁tiyaddu	-6931
▁toberju	-6932
▁togolet	-6933
▁tojumbi	-6934
▁tokuöji	-6935
▁toligga	-6936
▁tomorun	-6937
▁tomuswe	-6938
▁tonoŋga	-6939
▁toreaji	-6940
▁toregga	-6941
▁torekin	-6942
▁torumbe	-6943
▁torumbö	-6944
▁toruöni	-6945
▁toteton	-6946
▁totogwo	-6947
▁totolup	-6948
▁totomie	-6949
▁totomiö	-6950
▁totoran	-6951
▁totorem	-6952
▁totoyuö	-6953
▁totumbe	-6954
▁toworja	-6955
▁toworji	-6956
▁towoŋgi	-6957
▁toyuöji	-6958
▁toŋiuri	-6959
▁toŋiyit	-6960
▁toŋoŋga	-6961
▁tugwöre	-6962
▁tugwörö	-6963
▁tujarji	-6964
▁tujarju	-6965
▁tujarun	-6966
▁tukarji	-6967
▁tukaŋan	-6968
▁tuköddi	-6969
▁tunyöni	-6970
▁turyeni	-6971
▁tusörji	-6972
▁tusörju	-6973
▁tuŋöije	-6974
▁tuŋöine	-6975
▁tuŋökin	-6976
▁twöyösi	-6977
▁töililo	-6978
▁wakakin	-6979
▁wewelan	-6980
▁wilöddi	-6981
▁wowoani	-6982
▁wowoari	-6983
▁woworan	-6984
▁wukiesi	-6985
▁wuköddi	-6986
▁wusaddu	-6987
▁wuwukin	-6988
▁wuyuddi	-6989
▁wuyuddu	-6990
▁wökiesi	-6991
▁yakanyu	-6992
▁yakinto	-6993
▁yeyegga	-6994
▁yeyeggi	-6995
▁yeyendu	-6996
▁yeyeoro	-6997
▁yeyeŋga	-6998
▁yeŋaddu	-6999
▁yitweni	-7000
▁yiŋaddi	-7001
▁yuyukun	-7002
▁yuyukwe	-7003
▁yuŋweet	-7004
▁yuŋweki	-7005
▁yuŋwene	-7006
▁yuŋweni	-7007
▁yöyöŋgi	-7008
▁ŋarakin	-7009
▁ŋaŋakin	-7010
▁ŋilujur	-7011
▁ŋoŋaddi	-7012
▁ŋörinyi	-7013
barinunit	-7014
delarikin	-7015
wekweniak	-7016
▁Ampipoli	-7017
▁AntIokIa	-7018
▁Apolonia	-7019
▁Augusito	-7020
▁Batisimo	-7021
▁Betepage	-7022
▁Beteseda	-7023
▁Denundye	-7024
▁Dionusio	-7025
▁Ermogene	-7026
▁Erodiona	-7027
▁Gweyajin	-7028
▁Ierapoli	-7029
▁Iomunyak	-7030
▁Iyölyöŋi	-7031
▁Kalaudia	-7032
▁Kenkuria	-7033
▁Kijikiya	-7034
▁Kokorite	-7035
▁Kotumalu	-7036
▁Kukunaki	-7037
▁Liliitan	-7038
▁Liŋgojin	-7039
▁Mitulene	-7040
▁Nikopoli	-7041
▁Pilologo	-7042
▁Salamone	-7043
▁Sarepata	-7044
▁Seleukia	-7045
▁Simasona	-7046
▁Sopatero	-7047
▁Sosetene	-7048
▁Surakusa	-7049
▁Tetenaki	-7050
▁Tirikuni	-7051
▁Todindye	-7052
▁Tojorene	-7053
▁Tojuline	-7054
▁Tokoyoke	-7055
▁Torepimo	-7056
▁Toyiŋaji	-7057
▁Tugwörji	-7058
▁Turopimo	-7059
▁Turuposa	-7060
▁Yayaraki	-7061
▁ametisto	-7062
▁babarara	-7063
▁babatisa	-7064
▁barundya	-7065
▁böbönöri	-7066
▁dakundye	-7067
▁didiniki	-7068
▁dinikine	-7069
▁dodototu	-7070
▁dodoŋaki	-7071
▁dokundya	-7072
▁domundya	-7073
▁dukundya	-7074
▁dulajine	-7075
▁dumundyö	-7076
▁duyömöki	-7077
▁galundya	-7078
▁gelundya	-7079
▁gigiIötu	-7080
▁gigiriki	-7081
▁gigirisi	-7082
▁gugubaji	-7083
▁gugubara	-7084
▁gwagwata	-7085
▁gwelakin	-7086
▁gweundya	-7087
▁gweyanit	-7088
▁gwigwitu	-7089
▁gwigwiun	-7090
▁gwogwoja	-7091
▁gwoloŋgi	-7092
▁gwugwulu	-7093
▁gwuluesi	-7094
▁gwutökin	-7095
▁görigöri	-7096
▁jalatara	-7097
▁jamundya	-7098
▁jojokoji	-7099
▁jukindya	-7100
▁jurutöki	-7101
▁jwariara	-7102
▁kadyadya	-7103
▁kamilyök	-7104
▁kamundye	-7105
▁karuönit	-7106
▁katokuök	-7107
▁kayeyeok	-7108
▁kekejutu	-7109
▁kenundya	-7110
▁kerendya	-7111
▁kikijikö	-7112
▁kikindya	-7113
▁kikinutu	-7114
▁kikitaki	-7115
▁kitajine	-7116
▁kiyundya	-7117
▁kiösurök	-7118
▁kokorite	-7119
▁kokoroji	-7120
▁konakine	-7121
▁korakine	-7122
▁korundya	-7123
▁kuIyaesi	-7124
▁kukunaki	-7125
▁kulyaesI	-7126
▁kwakwasa	-7127
▁kwekweki	-7128
▁kwelenyo	-7129
▁köbuŋösi	-7130
▁ködyöjwe	-7131
▁kököröju	-7132
▁kölundye	-7133
▁lakundya	-7134
▁lakundye	-7135
▁lalaŋaju	-7136
▁likitiet	-7137
▁liliitan	-7138
▁lilikara	-7139
▁luguriet	-7140
▁lukutiet	-7141
▁lulupujö	-7142
▁lulusökö	-7143
▁luluŋuji	-7144
▁lusököni	-7145
▁löpuköki	-7146
▁löpuköri	-7147
▁mamagora	-7148
▁metundya	-7149
▁metundye	-7150
▁mokundya	-7151
▁momoreni	-7152
▁momoroiu	-7153
▁momoroji	-7154
▁monowesi	-7155
▁morakine	-7156
▁mumuluga	-7157
▁mömöjutu	-7158
▁mömörötu	-7159
▁mörikölö	-7160
▁nakindya	-7161
▁nakwölöŋ	-7162
▁namunyan	-7163
▁nebijiin	-7164
▁nyerakin	-7165
▁nyumökin	-7166
▁nyököddi	-7167
▁pasakani	-7168
▁pikundyö	-7169
▁pokindye	-7170
▁pupuyuje	-7171
▁putukine	-7172
▁ratundye	-7173
▁renyaddu	-7174
▁rerekani	-7175
▁rikundye	-7176
▁riköjine	-7177
▁ririkine	-7178
▁ririkörö	-7179
▁riŋundya	-7180
▁riŋundye	-7181
▁rurusukö	-7182
▁rurutuki	-7183
▁rusundyö	-7184
▁rwösökin	-7185
▁ryaryaka	-7186
▁ryoryoka	-7187
▁saanijin	-7188
▁sarakine	-7189
▁sasanyet	-7190
▁sukindyö	-7191
▁sukundye	-7192
▁susunyun	-7193
▁tatatuja	-7194
▁telundya	-7195
▁telundye	-7196
▁terekesi	-7197
▁tikindye	-7198
▁timundya	-7199
▁timundye	-7200
▁tirikuni	-7201
▁titiddya	-7202
▁tobodwan	-7203
▁tobuŋwan	-7204
▁todindte	-7205
▁todinöri	-7206
▁togiraji	-7207
▁togiresi	-7208
▁tojuline	-7209
▁tojumuki	-7210
▁tokelesi	-7211
▁tokitaji	-7212
▁tokitaki	-7213
▁tokujöne	-7214
▁tokuruki	-7215
▁toludukö	-7216
▁tolupöji	-7217
▁tomilyaŋ	-7218
▁tomoraki	-7219
▁topipine	-7220
▁totojore	-7221
▁totojumu	-7222
▁totokoji	-7223
▁totokoro	-7224
▁totomije	-7225
▁totoreji	-7226
▁totoreki	-7227
▁totoroja	-7228
▁totoroji	-7229
▁totorone	-7230
▁totoyujö	-7231
▁totoŋiyu	-7232
▁toworani	-7233
▁toyiyiki	-7234
▁toyuöddi	-7235
▁tujamaki	-7236
▁tukundyö	-7237
▁tulyaŋgu	-7238
▁tulyelye	-7239
▁tutulala	-7240
▁tutundye	-7241
▁tutupötu	-7242
▁tutuŋöki	-7243
▁tuwöröju	-7244
▁tuyataki	-7245
▁tuŋaraki	-7246
▁twatwaji	-7247
▁wakundya	-7248
▁wasundya	-7249
▁wereyone	-7250
▁woorikin	-7251
▁wuköjine	-7252
▁wusajine	-7253
▁wuwuköji	-7254
▁wuyundya	-7255
▁wöwökine	-7256
▁wöwörötu	-7257
▁yayataki	-7258
▁yekundya	-7259
▁yeyekeja	-7260
▁yeyeoddu	-7261
▁yimönöni	-7262
▁yiyimönö	-7263
▁yiŋundya	-7264
▁yodindyö	-7265
▁yoyokoju	-7266
▁yukundya	-7267
▁yulundye	-7268
▁yökindyö	-7269
▁yöyöŋöni	-7270
▁yöyöŋöri	-7271
▁Ŋarundye	-7272
▁ŋaŋaraki	-7273
▁ŋuleddya	-7274
bokakindya	-7275
boriarikin	-7276
borokindya	-7277
bulökindyö	-7278
dukökindye	-7279
dutukindye	-7280
yulökindye	-7281
▁Akeledama	-7282
▁Ampuliato	-7283
▁Antipatri	-7284
▁Arimataya	-7285
▁Aristarko	-7286
▁Benyamina	-7287
▁Genesaret	-7288
▁Girikityo	-7289
▁Iomuinyan	-7290
▁Iudukötyo	-7291
▁Iyölyöŋön	-7292
▁Kakurunit	-7293
▁Kamörönit	-7294
▁Kapepenak	-7295
▁Kasasanya	-7296
▁Katiyunit	-7297
▁Katujarak	-7298
▁Kaŋeranit	-7299
▁Kurenetyo	-7300
▁Kölipönök	-7301
▁Mukölötyo	-7302
▁Mulökötyö	-7303
▁Murugujin	-7304
▁Nataniele	-7305
▁Petolemai	-7306
▁Rerenyesi	-7307
▁Sabatajin	-7308
▁Sosipater	-7309
▁Turupaina	-7310
▁alabasata	-7311
▁arabiajin	-7312
▁böŋörikin	-7313
▁dedelyaji	-7314
▁dudukaddu	-7315
▁emeralido	-7316
▁giginyija	-7317
▁gogonyani	-7318
▁gubakinde	-7319
▁gubarikin	-7320
▁gugubakin	-7321
▁gwigwikin	-7322
▁gwoŋkorok	-7323
▁gwugwugge	-7324
▁gwugwuggö	-7325
▁gwugwunyö	-7326
▁gwuluŋöji	-7327
▁gwögwörju	-7328
▁jajamaddu	-7329
▁jajamakin	-7330
▁jamarikin	-7331
▁jurutökin	-7332
▁kabulanit	-7333
▁kadumanit	-7334
▁kagomanit	-7335
▁kajamanit	-7336
▁kakarakin	-7337
▁kakoranit	-7338
▁kakurunit	-7339
▁kalekidon	-7340
▁kalöpukök	-7341
▁kamemetak	-7342
▁kamisajin	-7343
▁kanisajIn	-7344
▁kanitönit	-7345
▁kapitönit	-7346
▁kapupurak	-7347
▁karikönit	-7348
▁karopanit	-7349
▁katemanit	-7350
▁katetenak	-7351
▁katinunit	-7352
▁katojumuk	-7353
▁kayatanit	-7354
▁kayeyekak	-7355
▁kayupönIt	-7356
▁kayupöniy	-7357
▁kaŋeranit	-7358
▁kerubajin	-7359
▁kokoladdi	-7360
▁krisolito	-7361
▁kuukujönö	-7362
▁kwekweyun	-7363
▁körörikin	-7364
▁lalaiaddu	-7365
▁liliundye	-7366
▁logululök	-7367
▁lokiliŋan	-7368
▁lokokorit	-7369
▁lokolokak	-7370
▁lomuryeje	-7371
▁losisilaŋ	-7372
▁lotolokok	-7373
▁lowulekak	-7374
▁lugalaŋak	-7375
▁lukadaŋak	-7376
▁luŋurikin	-7377
▁lölöpuggö	-7378
▁löpuköddi	-7379
▁mimirakin	-7380
▁momokaddu	-7381
▁muIökötyo	-7382
▁mumuIugge	-7383
▁munyundya	-7384
▁möndiliet	-7385
▁nagusulak	-7386
▁naliliŋök	-7387
▁naparoroŋ	-7388
▁naporoŋok	-7389
▁nyanyaggu	-7390
▁nyonyoran	-7391
▁nyunyumwe	-7392
▁nyökundyö	-7393
▁nyömöjine	-7394
▁petarikin	-7395
▁pikarikin	-7396
▁pipinyaki	-7397
▁piyarikin	-7398
▁romarikin	-7399
▁rugwuŋöni	-7400
▁rurukökin	-7401
▁rurutukin	-7402
▁rwösundye	-7403
▁ryaryaggu	-7404
▁ryoryoggi	-7405
▁sardoniko	-7406
▁sasanyari	-7407
▁temeneŋan	-7408
▁tetenaddu	-7409
▁todelyaji	-7410
▁togiraddi	-7411
▁tokitakin	-7412
▁tokoyogga	-7413
▁tokuöjine	-7414
▁toludugge	-7415
▁toluduggö	-7416
▁tomodoŋan	-7417
▁topirikin	-7418
▁tosunyuki	-7419
▁totogirja	-7420
▁totokorji	-7421
▁totopukun	-7422
▁tototumbö	-7423
▁toyuöjine	-7424
▁toŋkwetan	-7425
▁tukonakin	-7426
▁tuköpuggö	-7427
▁tulyaŋesi	-7428
▁tunyundyö	-7429
▁tupaganon	-7430
▁tutukarut	-7431
▁tutuköddu	-7432
▁tutusörju	-7433
▁tutuŋöddu	-7434
▁tuyatakin	-7435
▁tuŋarakin	-7436
▁tuŋaundye	-7437
▁twatwaara	-7438
▁wawasakin	-7439
▁wiwinyani	-7440
▁wiwinyari	-7441
▁woworikin	-7442
▁wuwulökin	-7443
▁yeyekaddi	-7444
▁yeyekaddu	-7445
▁yeyeleŋta	-7446
▁yukuundye	-7447
▁yuyulöŋtu	-7448
▁Andaroniko	-7449
▁Ejipetotyo	-7450
▁Etiopiatyo	-7451
▁Genesareta	-7452
▁Getesemane	-7453
▁Kapernauma	-7454
▁Katatuanit	-7455
▁Konakindye	-7456
▁Kurudwötti	-7457
▁Kwakwasaki	-7458
▁Kwakwasesi	-7459
▁Malaikatat	-7460
▁Mirakindye	-7461
▁Momorundye	-7462
▁Morakindye	-7463
▁Pentekosta	-7464
▁Pirisikila	-7465
▁Romakindye	-7466
▁Rubaŋgajin	-7467
▁Samotrakia	-7468
▁Sarakindye	-7469
▁Tarakoniti	-7470
▁Yulukindye	-7471
▁babatisari	-7472
▁buIakindya	-7473
▁böbönundyö	-7474
▁derakindye	-7475
▁dodomundya	-7476
▁dukakindye	-7477
▁dulakindya	-7478
▁dulakindye	-7479
▁dulalyöŋön	-7480
▁durökindye	-7481
▁dyadyalesi	-7482
▁gwugwutötu	-7483
▁gwuluŋöddi	-7484
▁gömökindyö	-7485
▁jokakindya	-7486
▁jokakindye	-7487
▁jujukindye	-7488
▁jujumundye	-7489
▁jöjölöjine	-7490
▁kalakindye	-7491
▁kalwökönit	-7492
▁kalyöŋönit	-7493
▁karakindye	-7494
▁karerenyak	-7495
▁katoruönir	-7496
▁katugwörök	-7497
▁katulukuti	-7498
▁kaŋinyanit	-7499
▁kekerendya	-7500
▁korakindye	-7501
▁köIökIndye	-7502
▁ködudwöIön	-7503
▁liŋikindye	-7504
▁loŋakindye	-7505
▁lulukundya	-7506
▁lulukundye	-7507
▁lulusököni	-7508
▁löpuköjine	-7509
▁maIaikatat	-7510
▁matakindya	-7511
▁milyörikin	-7512
▁momokajine	-7513
▁mömönundyö	-7514
▁namilyaŋak	-7515
▁nasulyöŋök	-7516
▁pepenundye	-7517
▁pipilundye	-7518
▁pitakindye	-7519
▁pukökindye	-7520
▁pupunundye	-7521
▁renyarikin	-7522
▁riŋakindya	-7523
▁rurutundya	-7524
▁röpökindyö	-7525
▁sabakatani	-7526
▁tojukindye	-7527
▁tokwelendu	-7528
▁tolupudien	-7529
▁topunundye	-7530
▁topurundyö	-7531
▁torakindya	-7532
▁torakindye	-7533
▁torenyakin	-7534
▁torigwöggi	-7535
▁torigwöggu	-7536
▁totodindyö	-7537
▁totorondya	-7538
▁tukukindye	-7539
▁tukwölöŋgu	-7540
▁tukwöriene	-7541
▁tutukundye	-7542
▁tutunundya	-7543
▁tutunundye	-7544
▁twöyörikin	-7545
▁tökökindye	-7546
▁welakindya	-7547
▁wulökindyö	-7548
▁yekakindya	-7549
▁yekakindye	-7550
▁yukakindye	-7551
▁yukukindye	-7552
▁ŋetakindya	-7553
▁ŋolakindye	-7554
▁ŋöŋökindyö	-7555
▁Galilayatyo	-7556
▁Kajujumunit	-7557
▁Katojumunit	-7558
▁Katukaranit	-7559
▁batisimojin	-7560
▁gwagwalaggi	-7561
▁gwatakindye	-7562
▁gwelakindye	-7563
▁gwigwiliŋgi	-7564
▁gwogwoloŋgi	-7565
▁gwugwuluŋgö	-7566
▁jölöbiyajin	-7567
▁kajujuwanit	-7568
▁kamomoronit	-7569
▁kapipilunit	-7570
▁katogolonit	-7571
▁katoŋiyunit	-7572
▁katujaranit	-7573
▁kerenyundya	-7574
▁krisoparaso	-7575
▁kweniarikin	-7576
▁kölökinkulo	-7577
▁lulupörikin	-7578
▁lyölyöŋiörö	-7579
▁meliŋarikin	-7580
▁mwönyörikin	-7581
▁nyelakindya	-7582
▁nyelakindye	-7583
▁nyömökindye	-7584
▁pararaundya	-7585
▁renyakindya	-7586
▁renyakindye	-7587
▁rerekarikin	-7588
▁rerenyajine	-7589
▁rigirigilön	-7590
▁ririŋarikin	-7591
▁ryokakindye	-7592
▁sereserejin	-7593
▁sunyukindyö	-7594
▁tanyakindye	-7595
▁todinörikin	-7596
▁togolorikin	-7597
▁tokororikin	-7598
▁tomirikulan	-7599
▁totokeladdu	-7600
▁totokurukin	-7601
▁totokuöjine	-7602
▁totoyiyikin	-7603
▁tutukwörien	-7604
▁yuyukörikin	-7605
buggöjolonyon	-7606
▁Kalapakindye	-7607
▁Kristianijin	-7608
▁Toyiyikindye	-7609
▁Yisaraeletyo	-7610
▁dedelyarikin	-7611
▁duyömökindyö	-7612
▁gigirikindya	-7613
▁gwögwörundyö	-7614
▁kakalakindya	-7615
▁kakwekweniak	-7616
▁katugwörönit	-7617
▁kulyejurakan	-7618
▁mumulukundya	-7619
▁mumulukundye	-7620
▁tokoyokundya	-7621
▁tokuŋukindyö	-7622
▁tokwelenyoni	-7623
▁tokwilinyiki	-7624
▁topukökindyö	-7625
▁toyiyikindye	-7626
▁gwoŋkorokokan	-7627
▁gwuluŋökindye	-7628
▁kadyadyalanit	-7629
▁kanyunyumönit	-7630
▁kwakwasakindya	-7631
▁raradanludweki	-7632
00	-7633
02	-7634
04	-7635
06	-7636
10	-7637
11	-7638
12	-7639
13	-7640
14	-7641
15	-7642
16	-7643
20	-7644
21	-7645
22	-7646
23	-7647
25	-7648
26	-7649
30	-7650
31	-7651
32	-7652
33	-7653
34	-7654
35	-7655
36	-7656
40	-7657
41	-7658
42	-7659
44	-7660
45	-7661
46	-7662
50	-7663
51	-7664
52	-7665
53	-7666
55	-7667
56	-7668
61	-7669
62	-7670
Ab	-7671
Ad	-7672
Ak	-7673
Al	-7674
Am	-7675
An	-7676
Ap	-7677
Ar	-7678
As	-7679
At	-7680
Au	-7681
Aw	-7682
Be	-7683
Bi	-7684
Bu	-7685
Bö	-7686
Da	-7687
Eb	-7688
Ee	-7689
Ej	-7690
El	-7691
Ep	-7692
Er	-7693
Eu	-7694
Ga	-7695
Ge	-7696
Gi	-7697
Gu	-7698
Gw	-7699
01	-7700
03	-7701
05	-7702
24	-7703
54	-7704
60	-7705
63	-7706
64	-7707
65	-7708
66	-7709
Ag	-7710
Ai	-7711
Aj	-7712
En	-7713
Es	-7714
Et	-7715
Go	-7716
Ij	-7717
Ik	-7718
Il	-7719
Ir	-7720
Is	-7721
Iu	-7722
Iw	-7723
Iy	-7724
KI	-7725
Ka	-7726
Ke	-7727
Ki	-7728
Ko	-7729
Kr	-7730
Ku	-7731
Kw	-7732
Kö	-7733
La	-7734
Le	-7735
Li	-7736
Lo	-7737
Lu	-7738
Lw	-7739
Ly	-7740
Lö	-7741
Ma	-7742
Me	-7743
Mi	-7744
Mo	-7745
Mu	-7746
Mö	-7747
Na	-7748
Ne	-7749
Ni	-7750
No	-7751
Nu	-7752
Ny	-7753
Pa	-7754
Pe	-7755
Pi	-7756
Po	-7757
Pu	-7758
Ra	-7759
Ri	-7760
Ro	-7761
Ru	-7762
Sa	-7763
Se	-7764
Si	-7765
So	-7766
Su	-7767
TI	-7768
Ta	-7769
Te	-7770
Ti	-7771
To	-7772
Tu	-7773
Tw	-7774
Tö	-7775
YI	-7776
Ya	-7777
Ye	-7778
Yi	-7779
Yo	-7780
Yu	-7781
Yö	-7782
aI	-7783
aa	-7784
ad	-7785
ae	-7786
aj	-7787
am	-7788
ao	-7789
ap	-7790
au	-7791
aw	-7792
ay	-7793
bb	-7794
dd	-7795
dw	-7796
dy	-7797
eI	-7798
eb	-7799
DA	-7800
In	-7801
Re	-7802
YA	-7803
YE	-7804
by	-7805
dt	-7806
ed	-7807
ee	-7808
eg	-7809
ei	-7810
ej	-7811
el	-7812
eu	-7813
ew	-7814
ey	-7815
gg	-7816
gr	-7817
id	-7818
ig	-7819
ij	-7820
im	-7821
iw	-7822
iy	-7823
iö	-7824
jw	-7825
kI	-7826
kj	-7827
kr	-7828
kt	-7829
ku	-7830
kö	-7831
lt	-7832
lw	-7833
ly	-7834
lŋ	-7835
mp	-7836
mw	-7837
mö	-7838
nI	-7839
nd	-7840
nj	-7841
nk	-7842
nr	-7843
nt	-7844
nu	-7845
nw	-7846
ny	-7847
nö	-7848
oI	-7849
ob	-7850
od	-7851
oe	-7852
og	-7853
oi	-7854
oj	-7855
ol	-7856
om	-7857
oo	-7858
os	-7859
ow	-7860
oy	-7861
pr	-7862
py	-7863
pö	-7864
rd	-7865
re	-7866
rg	-7867
rj	-7868
rk	-7869
rm	-7870
rn	-7871
rs	-7872
rt	-7873
rw	-7874
ry	-7875
rö	-7876
sI	-7877
ss	-7878
st	-7879
sw	-7880
sö	-7881
tI	-7882
tm	-7883
tr	-7884
tt	-7885
tw	-7886
ty	-7887
ua	-7888
ud	-7889
ue	-7890
ui	-7891
uj	-7892
uo	-7893
uw	-7894
uy	-7895
uö	-7896
wu	-7897
yI	-7898
yw	-7899
öI	-7900
öb	-7901
öd	-7902
öe	-7903
ög	-7904
öi	-7905
öj	-7906
öu	-7907
öw	-7908
öy	-7909
öö	-7910
Ŋa	-7911
Ŋi	-7912
Ŋo	-7913
Ŋu	-7914
Ŋw	-7915
ŋI	-7916
ŋg	-7917
ŋi	-7918
ŋj	-7919
ŋk	-7920
ŋo	-7921
ŋs	-7922
ŋt	-7923
ŋu	-7924
ŋw	-7925
ŋy	-7926
ŋö	-7927
▁e	-7928
▁u	-7929
Bat	-7930
Ben	-7931
Ber	-7932
Böŋ	-7933
Duk	-7934
Dut	-7935
Eun	-7936
Gwe	-7937
Ion	-7938
Ior	-7939
Iug	-7940
Iuk	-7941
Ium	-7942
Iut	-7943
▁	-7944
a	-7945
n	-7946
i	-7947
o	-7948
k	-7949
e	-7950
u	-7951
t	-7952
l	-7953
y	-7954
ŋ	-7955
d	-7956
g	-7957
ö	-7958
r	-7959
w	-7960
m	-7961
s	-7962
,	-7963
j	-7964
p	-7965
'	-7966
b	-7967
.	-7968
A	-7969
Ŋ	-7970
K	-7971
Y	-7972
N	-7973
M	-7974
L	-7975
;	-7976
T	-7977
?	-7978
P	-7979
S	-7980
I	-7981
D	-7982
-	-7983
B	-7984
!	-7985
4	-7986
1	-7987
G	-7988
3	-7989
2	-7990
E	-7991
R	-7992
5	-7993
0	-7994
6	-7995
